#version: 0.1
t h
a n
i n
th e</w>
e r
r e
o n
o f</w>
a r
e n
e d</w>
t i
an d</w>
o u
o r
i t
e r</w>
t o</w>
i n</w>
a l
s t
in g</w>
h i
o n</w>
a s</w>
a t
r o
e s
h e</w>
a t</w>
e l
o r</w>
a c
i s
e s</w>
o m
r i
i s</w>
a n</w>
a s
i l
e c
o l
h a
e n</w>
a l</w>
i c
w as</w>
l e
u r
a m
a ti
a d
s i
l y</w>
u n
n o
e m
l i
u s
e d
v e</w>
l o
th at</w>
T he</w>
it h</w>
en t
a g
w h
f or</w>
c h
w ith</w>
e ,</w>
c h</w>
b e
v er
l e</w>
s ,</w>
hi s</w>
d i
g h
th e
er e</w>
in g
s e
b y</w>
i r
a b
ou n
en t</w>
s u
c on
s .</w>
1 9
d e
o s
r a
i t</w>
l a
o p
t er
o w
f or
b u
p ro
' s</w>
c om
o o
ro m</w>
y ,</w>
w hi
c e</w>
n e
f rom</w>
a p
u l
i d
an d
2 0
e t
e x
b e</w>
ati on
s p
e .</w>
ha d</w>
q u
l d</w>
al l</w>
s h
m a
no t</w>
ati on</w>
ar e</w>
h e
t r
whi ch</w>
- -
th er</w>
f f
t a
p er
re s
t ed</w>
t h</w>
s a
i m
w or
o u</w>
ti on</w>
i r</w>
u m
ou ld</w>
ti on
u t
e v
w ere</w>
o c
on e</w>
ou t</w>
y .</w>
gh t</w>
t er</w>
a r</w>
ha ve</w>
h er</w>
p ar
p l
s o</w>
bu t</w>
u c
k e</w>
s t</w>
e ar
at e</w>
er s</w>
es ,</w>
th is</w>
t s</w>
ou r
o v
w a
m an
re c
y ou</w>
i g
ou r</w>
e p
al l
t w
it y</w>
S t
u d
st r
T h
am e</w>
en d
the ir</w>
o d
at ed</w>
re d</w>
ti m
p o
th er
the y</w>
e t</w>
in c
I n</w>
H e</w>
i v
e st
ar d
t ,</w>
es .</w>
n i
b er
an g
a v
. "</w>
t o
g h</w>
ar y</w>
p e
f i
ti c
es t</w>
s el
u p
s he</w>
ed ,</w>
i d</w>
c o
wh o</w>
A n
s e</w>
om e</w>
d a
g r
it s</w>
d er
es s</w>
an c
20 0
f e
20 1
be en</w>
i st
b o
p or
C h
h as</w>
m or
is h
f ir
a in
m y</w>
I t</w>
al ly</w>
ou s</w>
o ther</w>
b er</w>
I n
1 8
s er
on g</w>
com p
el l
il l</w>
re n
u s</w>
ar d</w>
d is
ou gh</w>
b l
t e
d er</w>
lo w
en c
for m
m in
t ur
a f
o g
il l
w ould</w>
a d</w>
ag e</w>
m e
p res
s c
us t</w>
l in
er ,</w>
g e</w>
ver y</w>
g o
os t</w>
oun d</w>
b r
ec t</w>
ow n</w>
an y</w>
as t</w>
ab le</w>
es s
, "</w>
v i
k no
hi m</w>
an t</w>
g re
w i
) ,</w>
wh en</w>
p re
d ,</w>
on ,</w>
w e</w>
k ing</w>
as s
ed .</w>
a ,</w>
t ing</w>
in to</w>
u t</w>
p la
f in
n o</w>
a st
m o
en ce</w>
p h
m er
u p</w>
A l
k s</w>
d e</w>
ol d</w>
P ro
hi m
g i
fir st</w>
t .</w>
w e
u re
M ar
ing ,</w>
at t
mor e</w>
a re
A r
ri c
p os
al so</w>
W h
m ar
t y</w>
w ill</w>
a u
it e</w>
es e</w>
el l</w>
d o
k ed</w>
ad e</w>
m ent</w>
on g
b ec
com m
s hi
i c</w>
ac e</w>
o b
d uc
oun d
p r
m an</w>
el y</w>
an ce</w>
c l
a m</w>
m e</w>
con t
it t
i es</w>
p a
d es
s o
tw o</w>
al i
ur e</w>
u e</w>
g l
ac h
N e
ac k</w>
m ost</w>
is h</w>
y s</w>
c hi
th an</w>
or d
" ,</w>
th ere</w>
on ly</w>
s ec
o w</w>
s ome</w>
ff ic
n ed</w>
i al</w>
e l</w>
i f</w>
s ti
p p
m on
ou s
m ent
oo d</w>
in e</w>
in ter
ab out</w>
os e</w>
k ,</w>
af ter</w>
c oun
us e</w>
19 9
l l</w>
ov er</w>
re e</w>
g u
e f
wa y</w>
o f
u b
f a
the m</w>
c an</w>
m u
ser v
p ri
M a
sa id</w>
it ed</w>
wi th
E n
y ear
h er
an t
f l
ro w
kno w
en er
tim e</w>
em ber</w>
) .</w>
a k
c ol
wh at</w>
o re
m il
for e</w>
th r
si on</w>
ation s</w>
ma y</w>
ar i
p i
t or
wh ere</w>
m ade</w>
in d
su ch</w>
c ould</w>
m i
t e</w>
di st
j ect</w>
f ac
th ing</w>
lo c
J o
a .</w>
r u
T he
d o</w>
ta in
v er</w>
C om
in t
th em
k e
sp ec
c ri
l d
f ol
t u
st or
n ing</w>
l at
an s
ation al</w>
ing s</w>
U n
ac c
' t</w>
en ,</w>
is t</w>
T his</w>
oo k</w>
b or
ic al</w>
i l</w>
ac h</w>
y ing</w>
th en</w>
lo o
inc l
le ,</w>
li ke</w>
f u
on s</w>
is i
er .</w>
ne w</w>
L e
l l
ur ing</w>
tion s</w>
ic e</w>
en ti
pro v
on .</w>
r y</w>
m is
v el
f ul
en d</w>
ing .</w>
l and
An d</w>
ou ght</w>
gh t
e ver
" .</w>
M r
s on</w>
ch ar
su b
h el
t ra
b le</w>
P ar
incl ud
ag ain
an i
ut en
C on
up on</w>
o t
ow n
ent s</w>
y our</w>
ver s
w r
s y
l ar
B ut</w>
d ec
st e
at es</w>
t ri
c re
19 8
th ese</w>
wor k</w>
us ed</w>
b el
e en</w>
ed i
A mer
be fore</w>
li f
an s</w>
o ver
p ol
A u
0 0
Amer ic
itt le</w>
c er
ter n
man y</w>
ac k
e y
S he</w>
r an
sel f</w>
om e
c ent
di d</w>
as ed</w>
en g
m at
as e</w>
" The</w>
el ec
? "</w>
n am
be ing</w>
un der</w>
em p
uten ber
il y</w>
c ar
thr ough</w>
ish ed</w>
no w</w>
ha m
y ou
s ch
t re
i p
a th
d s</w>
ff er
e g
s ur
E x
re ad
t t
C ol
f t</w>
si d
g e
r is
L i
1 7
l ittle</w>
s ol
e i
R o
pla y
oc i
sh ould</w>
w at
Ne w</w>
Pro ject</w>
b ro
a y
o m</w>
on d</w>
m ust</w>
ti es</w>
f il
pe op
19 7
f am
be g
v ing</w>
ta in</w>
c an
r e</w>
be tw
G utenber
S e
d on
d .</w>
betw een</w>
ti ve</w>
fu l</w>
c ap
w ell</w>
A f
gre at</w>
al s</w>
o ,</w>
in ce</w>
p s</w>
fol low
l ed</w>
s m
u m</w>
n um
U ni
ap p
pl ac
i an</w>
c c
ar m
En gl
The y</w>
mu ch</w>
o ffic
th ough</w>
1 0
l and</w>
s k
j o
Jo h
an n
v es</w>
h and
par t</w>
at ing</w>
bu il
e -
c lo
m ov
whi le</w>
th ree</w>
f er
c our
g a
em ent</w>
N or
en s
c all
u bl
th ose</w>
si st
ation ,</w>
a w
b i
O n</w>
st ar
lo w</w>
pro duc
se e</w>
ol og
si g
e w
c or
g ener
da y</w>
s ame</w>
oo l</w>
again st</w>
l es</w>
b re
ro s
f ound</w>
ation .</w>
v o
ti c</w>
str uc
ev er</w>
19 6
" S
d own</w>
b ur
ou t
ati ve</w>
s ome
f ic
ev en</w>
v ed</w>
a use</w>
su p
1 6
re g
ex p
f ri
c ur
v ol
on d
l ess</w>
an ,</w>
tion .</w>
Mr .</w>
tion ,</w>
po in
in ed</w>
d uring</w>
Th ere</w>
" I</w>
Un ited</w>
B ri
n or
it ,</w>
with out</w>
ex c
l y
n e</w>
C oun
si de</w>
am p
1 5
know n</w>
w om
ti v
th in
di rec
Y ou</w>
! "</w>
c ame</w>
s ed</w>
ard s</w>
- t
k s.</w>
al ,</w>
ma ke</w>
m en</w>
le t
la r</w>
g iv
u st
b ri
a ir
com e</w>
ou gh
h ol
k .</w>
. .
un d
ent ,</w>
ne ver</w>
c i
S ch
or g
in i
shi p</w>
sel f
id e</w>
-- --
th ,</w>
di v
h ou
t ly</w>
G re
s ou
m p
qu i
ad i
Americ an</w>
s on
g ra
b ack</w>
v e
t y
er n</w>
le .</w>
or y</w>
W or
and ,</w>
B o
A s</w>
c op
as s</w>
si on
po si
n ec
h or
h ow</w>
year s</w>
bo th</w>
g ood</w>
W il
un i
ri bu
re tur
per i
l y,</w>
por t
un der
l ong</w>
G er
e iv
m em
ti s
Gutenber g
_ ,</w>
p ow
F r
bor n</w>
ti l</w>
g o</w>
er ed</w>
C ar
u al</w>
19 4
at h</w>
k en</w>
call ed</w>
le g
1 ,</w>
I f</w>
h al
H is</w>
se as
d ing</w>
N o
T H
e ach</w>
e very</w>
f r
t on</w>
peop le</w>
or t</w>
n at
m s</w>
t en</w>
p ass
s ha
it .</w>
s ing
t or</w>
as h
li c</w>
a in</w>
i z
is ,</w>
y e
S p
Uni vers
oo t
ever ,</w>
p le
19 5
ch ang
G r
I I
D e
i gh
un til</w>
in d</w>
he ar
S ou
pl ace</w>
1 2
w ent</w>
sp e
u ary</w>
ta ke</w>
j ec
R e
t ook</w>
is e</w>
su l
1 .
se ver
en ed</w>
se t</w>
j ust</w>
o ol
re l
In di
1 .</w>
p ur
y s
in s</w>
bec ame</w>
m en
4 ,</w>
ec h
p op
t al
it y,</w>
su cc
ri ght</w>
ow ever,</w>
ic k
sti ll</w>
c as
a z
y oun
ar ly</w>
a y</w>
cont in
S .</w>
ad v
3 ,</w>
ub lic</w>
sh all</w>
w ar
Q u
f re
l ast</w>
er s,</w>
T E
kno w</w>
g et</w>
o ther
ter s</w>
v en
end ed</w>
ent ly</w>
d el
i a</w>
G e
A t</w>
Gutenberg -t
B r
F or</w>
e 's</w>
n ess</w>
e p</w>
tic al</w>
l ec
mi ght</w>
’ s</w>
de p
. ,</w>
isi on</w>
c ha
n er</w>
an y
or s</w>
W e</w>
re ma
p ubl
sa id
n ame</w>
par t
P er
hi stor
di ffer
H ar
ch ,</w>
tern al</w>
at ,</w>
Wh en</w>
re le
o d</w>
of f</w>
a ff
J u
ep t</w>
I '
re st
d r
v ari
v al
B e
h o
hi gh
s ;</w>
op er
I s
Gutenberg-t m</w>
Joh n</w>
in ,</w>
ri ed</w>
ap pe
3 .</w>
D i
pres ent
go ver
" M
st and
a il
f el
rec eiv
or ,</w>
le ft</w>
or ig
m edi
b us
st at
sec ond</w>
u gh
c e
coun tr
tur e</w>
re as
al e</w>
chi ld
bec ause</w>
B ar
o ff
ad d
tr ac
se em
for m</w>
or d</w>
w ard</w>
Af ter</w>
includ ing</w>
f ore
d ra
en n
fi el
wa ys</w>
c are
2 .</w>
oo d
e ;</w>
h um
b ar
us ,</w>
A d
ure s</w>
A c
R E
4 .</w>
M on
num ber</w>
wr it
2 ,</w>
con si
il i
19 3
P r
v ic
5 ,</w>
he ad
b all</w>
e "</w>
J an
b od
fe w</w>
O r
" H
s en
su m
lat er</w>
ra p
C an
sever al</w>
7 ,</w>
A N
por t</w>
6 ,</w>
lif e</w>
him self</w>
u lar</w>
bel i
8 ,</w>
lin e</w>
C hi
de vel
it y.</w>
n ,</w>
s ince</w>
u ro
co ver
c le
st re
f our</w>
la w
li m
S h
v is
gr ou
char ac
Y or
l ong
ab l
it er
" D
" B
an other</w>
a k</w>
d u
e f</w>
w in
T o</w>
ti t
g g
w ell
un e</w>
lo s
i de
par tic
a red</w>
Univers ity</w>
n 't</w>
re sid
re ,</w>
p er</w>
G u
pos si
t ow
re f
tis h</w>
y 's</w>
T r
gi ve</w>
ep t
th ir
orig in
in v
as ,</w>
m od
Ex ternal</w>
Ch ar
5 .</w>
st ud
st ,</w>
beg an</w>
d em
c ul
C or
ent .</w>
u r</w>
lin ks.</w>
re sp
A s
ex t
youn g</w>
ne w
H e
sm all</w>
al .</w>
in e
p ut</w>
i ous</w>
P ol
fri end
b ed</w>
gover n
he ad</w>
le ad
es s,</w>
ha ving</w>
p .</w>
id ed</w>
st ate</w>
tr ans
him ,</w>
c a
y -
contin u
ha pp
hel d</w>
ear ly</w>
follow ing</w>
pro f
p ic
C o
f ur
I N
ye ar</w>
res s</w>
ig n</w>
tim es</w>
H ist
M is
ch ed</w>
app ear
N ational</w>
b as
consi der
k et
s il
devel op
Se e</w>
, 00
thin k</w>
e qu
th ought</w>
e br
0 ,</w>
li ght</w>
au th
m y
c la
wh ol
am ong</w>
pl an
with in</w>
le y</w>
al bu
ec ted</w>
si c</w>
no w
h on
N ov
S er
9 ,</w>
k es</w>
am es</w>
tion al</w>
1 4
o p</w>
m us
d re
lar ge</w>
S ec
s "</w>
to o</w>
p e</w>
le t</w>
wor ks</w>
1 3
is ed</w>
" L
6 .</w>
ag re
D ec
E uro
d en
z e</w>
" P
ham pi
ir e</w>
l ad
sa w</w>
ic h
g en
a "</w>
F or
e ff
d om
F ren
M an
. _</w>
st er
l y.</w>
receiv ed</w>
e k</w>
A R
fe at
a way</w>
g ed</w>
u di
E d
p ublic</w>
b le
a wa
re sul
be t
pol i
8 .</w>
c r
B l
sh ow
ful l</w>
s oci
re li
giv en</w>
play ed</w>
7 .</w>
ne x
to ge
b an
Wh at</w>
o t</w>
ag es</w>
fi ed</w>
h ar
C ent
O c
C l
him .</w>
ut e</w>
e as
ig n
on ic</w>
ther ,</w>
Wor ld</w>
form ed</w>
f e</w>
des cri
g ir
on ce</w>
sa y</w>
li st
t ro
h y
pop ul
z ed</w>
ic k</w>
w ard
e y</w>
b oo
Wil li
ros s</w>
res t</w>
f ace</w>
ter ,</w>
u ally</w>
19 2
R om
h ,</w>
d ou
Bri tish</w>
er s.</w>
al ong</w>
or e</w>
ther n</w>
of ten</w>
Com m
al ways</w>
en .</w>
hou se</w>
S u
at ely</w>
p ed</w>
i ght</w>
si ve</w>
Ma y</w>
k s,</w>
for c
dist ribu
et y</w>
fam ily</w>
s it
f ar</w>
TH E</w>
so .</w>
St ates</w>
9 .</w>
l ing</w>
ag ain</w>
v ill
w al
ne ar</w>
a i
comp le
de f
u ri
u str
B i
form er</w>
th .</w>
ord ing</w>
in ing</w>
b ers</w>
st ri
m om
b est</w>
P hi
G ener
r un
E R
re s</w>
S ept
read y</w>
ac t</w>
Th at</w>
go t</w>
p ec
th y</w>
y et</w>
hi gh</w>
Sou th</w>
d ri
Engl ish</w>
B er
go ing</w>
o s</w>
" W
m ember</w>
ar ound</w>
r ang
ous ly</w>
al most</w>
sc i
" O
re p
Oc to
se en</w>
d en</w>
et ,</w>
fin d</w>
n ational</w>
ang u
h ere</w>
wh om</w>
L a
ta ken</w>
ab ly</w>
" C
ad em
fi ve</w>
b it
A pri
all ,</w>
h ome</w>
tr u
an ts</w>
un c
" T
or i
ag ue</w>
d ge</w>
H er
St at
enc e,</w>
Fr anc
a ve</w>
h op
sti tu
en s</w>
gh t,</w>
A b
elec tr
m ag
il ity</w>
m id
t s,</w>
ga ve</w>
gre at
ap pro
se .</w>
d ar
s :</w>
f oot
man ,</w>
ur ch</w>
0 .</w>
est abl
en ing</w>
in st
ound ed</w>
r ac
ach ed</w>
t ure
v il
A m
cent ur
serv ed</w>
nex t</w>
P e
d ro
or der</w>
bus in
o ve</w>
d oc
fil m</w>
ar ,</w>
vi ew
S y
h om
Ge or
pr is
M ic
an .</w>
v en</w>
s ent</w>
M in
O N
m ,</w>
R ep
b ased</w>
Th en</w>
M o
differ ent</w>
comm un
ar ch
pro t
R us
I t
al ity</w>
ed uc
19 0
im port
he av
ans w
posi tion</w>
i m</w>
Au str
loc ated</w>
Mar ch</w>
h ous
da ys</w>
do es</w>
J une</w>
P ri
se e
ment s</w>
er y</w>
c am
th re
h owever,</w>
te am</w>
s ite</w>
spec i
m e,</w>
rele ased</w>
p at
se qu
whol e</w>
n or</w>
Au g
wh e
w on</w>
y ;</w>
in a</w>
lar g
A L
Al l</w>
pos ed</w>
Fren ch</w>
s w
c ir
ur al</w>
ag ed</w>
p ain
ric t</w>
ro w</w>
t on
ma j
qu es
hal f</w>
w w
M us
C ap
Jan uary</w>
t old</w>
nam ed</w>
Austr ali
bod y</w>
D av
F ound
W e
pres ent</w>
ag e,</w>
wat er</w>
pro c
Ju ly</w>
p hi
row n</w>
sch ool</w>
fl u
E N
so on</w>
e w</w>
ro c
shi p
mov ed</w>
m .</w>
c ity</w>
wh ose</w>
D r
O ne</w>
m ed
dep end
br ought</w>
M c
Sept ember</w>
ch e
said ,</w>
Mr s.</w>
al so.</w>
St ate</w>
sp o
no thing</w>
Octo ber</w>
- -</w>
th ers</w>
,00 0</w>
W al
ar ti
ther e
m et
l ab
cur ren
am s</w>
for t
Apri l</w>
no t
w on
ra ph
qu ar
b ir
n er
e ve</w>
them ,</w>
us ing</w>
pr inc
ber t</w>
( born</w>
loo ked</w>
ch es</w>
bec ome</w>
ni ght</w>
L ond
m er</w>
cl u
B y</w>
S co
Aug ust</w>
St .</w>
tim e,</w>
" N
c al
form ation</w>
C H
don 't</w>
i e</w>
wor ld</w>
t ell</w>
s '</w>
a ut
oc c
re t
an ti
P o
Nor th</w>
18 9
di ed</w>
t own</w>
y ed</w>
ri st
hampi on
ad di
electr onic</w>
pr ac
v el</w>
t el
per son
li ed</w>
gr ad
Nov ember</w>
W ith</w>
0 0</w>
r al</w>
div id
Hist or
Sch ool</w>
R ec
d own
o .</w>
pl ic
ser ies</w>
F ebr
ro om
p it
D ist
H ol
Can ad
cer tain</w>
cont ro
et s</w>
on -
seem ed</w>
h and</w>
L E
m oun
re gi
s ing</w>
Gener al</w>
Dec ember</w>
le ar
( 200
r ing</w>
b and</w>
re n</w>
loo k</w>
ra ther</w>
ter min
wr itt
re .</w>
pow er</w>
H ou
s al
or .</w>
plac ed</w>
ful ly</w>
Th ese</w>
an im
P l
t y,</w>
buil t</w>
them sel
TE R</w>
seas on</w>
can not</w>
O F</w>
t en
bet ter</w>
fr on
g ent
nec ess
F rom</w>
a h
oun c
s es</w>
us h
ey es</w>
ar ri
ple as
v ir
st ro
re ad</w>
st em
ti ce</w>
sch ool
them .</w>
th ings</w>
1 0</w>
n s</w>
po st
ex pres
ed er
end ing</w>
or t
s on,</w>
c at
im p
he ard</w>
" A
qu ite</w>
di d
countr y</w>
18 8
y al</w>
ris ti
con f
se tt
gener al</w>
col lec
ter ms</w>
p ap
re present
ar t</w>
u g
on e,</w>
fa ther</w>
anc e,</w>
lo ve</w>
es s.</w>
Com p
sh ow</w>
tur ned</w>
v ent
G od
G over
as ked</w>
pos e</w>
d g
tain ed</w>
ma king</w>
in .</w>
U .
j ud
rec ord
it ted</w>
U S
dra w
it ary</w>
mis sion</w>
y n
d ue</w>
i str
r ound</w>
ati c</w>
R es
ill ed</w>
th at
poin t</w>
l angu
L I
u red</w>
W est
al low
A .</w>
r it
c ou
con cer
an g</w>
pla y</w>
ass oci
h und
ment .</w>
m ul
ation s.</w>
ex ist
Yor k</w>
st udi
wh ite</w>
C ha
is su
writt en</w>
st ood</w>
i .</w>
es ;</w>
" G
some thing</w>
re qui
Ch risti
Febr uary</w>
le av
W hi
grou p</w>
er ing</w>
il ed</w>
s qu
emp lo
i k
un g
da ugh
serv ic
tr an
18 6
ell ,</w>
b ook</w>
oc k
ste m</w>
" F
me ans</w>
y "</w>
k new</w>
b en
qu e</w>
O n
st er</w>
M e
fiel d</w>
wor d</w>
s or
l ate</w>
a ir</w>
sp ir
Ger man</w>
p ra
t s.</w>
ro ad
sing le</w>
on y</w>
S w
o k
J ap
g am
enc es</w>
i ent</w>
publ ished</w>
ing s,</w>
org ani
ist er</w>
en se</w>
is m</w>
be h
inter est
h our
st ra
T I
er e
con c
si x</w>
el ,</w>
Willi am</w>
H en
af ter
cir c
f av
. ”</w>
vari ous</w>
albu m</w>
" Y
comp any</w>
H owever,</w>
in divid
a 's</w>
og raph
R i
Sco t
s e,</w>
ei ther</w>
g ame</w>
da y,</w>
ment ,</w>
re fer
are a</w>
E m
ed ;</w>
" )</w>
le ge</w>
on om
ma in
enc e.</w>
n .</w>
pa ren
in de
d one</w>
Rus si
ac coun
I r
t own
In tern
thir d</w>
att emp
ma in</w>
cover ed</w>
ti ll</w>
fi c</w>
mu sic</w>
vi ew</w>
b ack
retur ned</w>
th at,</w>
appe ared</w>
ed ed</w>
th us</w>
S ir</w>
el s</w>
i ally</w>
toge ther</w>
. '</w>
M u
wor ld
f low
pp ed</w>
we e
land ,</w>
A P
E .
er 's</w>
Th om
t em
govern ment</w>
at e,</w>
c ase</w>
D uring</w>
1 )</w>
P resid
pro per
ati s
ab ove</w>
loc al</w>
th s</w>
f ig
dou b
ke ep</w>
Af ric
v e,</w>
D u
con di
U. S.</w>
ever y
M il
R ev
ne y</w>
f ree</w>
or der
C .</w>
F ran
st s</w>
es sion
, --
at s</w>
s le
ag e.</w>
W ar
18 7
cour se</w>
K ing</w>
b ra
anc es</w>
an a</w>
de ath</w>
origin al</w>
c ast
ag u
O R
en ough</w>
D es
M or
hel p</w>
B el
mil li
b att
da y
F i
fel t</w>
you ,</w>
succ ess
con struc
ud e</w>
pos s
li ght
our n
B ur
lo st</w>
ure ,</w>
f our
---- ----
in flu
ro om</w>
M al
i ,</w>
reli gi
s em
g row
on e
op en</w>
. --
wor k
f lo
ol d
si ons</w>
L ord</w>
for d</w>
sti t
pro b
w ant</w>
p rec
2 5
ar ch</w>
C am
self ,</w>
pass ed</w>
comm on</w>
hum an</w>
o -
at e
_ .</w>
all y,</w>
St re
l ,</w>
Ne w
olog y</w>
al ready</w>
ro ad</w>
vill age</w>
h ard
en 's</w>
c ra
s ong
popul ation</w>
E l
pre vi
W ar</w>
ig h</w>
mem bers</w>
in n
possi ble</w>
er i
P et
tr y</w>
w il
L ou
si mil
w id
la w</w>
. ]</w>
ac ross</w>
enc y</w>
" R
T ur
1 1
por ted</w>
T w
O ffic
S ha
la y</w>
D iv
uc k
cla im
at or</w>
st and</w>
ffic ul
sh ort</w>
h old</w>
t al</w>
poin ted</w>
es "</w>
ad m
Gutenber g</w>
ic s</w>
E .</w>
pe ti
gh ts</w>
G od</w>
sig ned</w>
I S
w est
gr ound</w>
ech n
retur n</w>
me an
t ou
Geor ge</w>
w ar</w>
R ich
fur ther</w>
in t</w>
di fficul
An g
I .</w>
s un
st y
pi ec
le ast</w>
us .</w>
y p
continu ed</w>
3 )</w>
s ure</w>
Ch in
s ong</w>
oc cas
spec ies</w>
chang e</w>
a ver
W est</w>
gr am
Mis s</w>
child ren</w>
au ti
th ous
li ve</w>
produc ed</w>
ev id
fam il
un ic
duc ed</w>
str ang
m ou
F re
per f
tion s,</w>
w ro
w ind
eff ec
V al
2 )</w>
Intern ational</w>
C our
A g
l s</w>
s )</w>
w est</w>
c el
star ted</w>
T im
al though</w>
occas i
resp on
ac i
import ant</w>
includ ed</w>
con sist
int ro
L ist</w>
O f</w>
M ad
l an
min d</w>
h er,</w>
V i
po or</w>
J ames</w>
si mp
P al
ex peri
fi f
Euro pe
it al</w>
wom an</w>
em ents</w>
ter ed</w>
S al
K ing
, '</w>
sy stem
t oo
ow ,</w>
clo se</w>
is .</w>
con nec
ch o
R eg
ord in
1 2</w>
tow ards</w>
V er
hear t</w>
M .</w>
r up
b ly</w>
a -
ha ps</w>
D on
buil ding</w>
d am
ann ounc
vi ol
v es
P i
A le
b and
A S
sy stem</w>
sup port</w>
C ity</w>
T e
per son</w>
ation s,</w>
an ted</w>
ter .</w>
to -
ef for
ch .</w>
C hampion
ra il
M y</w>
m other</w>
S o</w>
i th
t on,</w>
F l
know le
s la
S ome</w>
d ic
v ely</w>
op ened</w>
2 0</w>
tain s</w>
B oo
oc ial</w>
l a</w>
to p</w>
ar y,</w>
gh t.</w>
l eng
H er</w>
oc k</w>
st ation</w>
Le ague</w>
" You</w>
od e</w>
rec og
in e,</w>
d ed</w>
I' m</w>
dis c
p en
min istr
ru n</w>
or ity</w>
themsel ves</w>
follow ed</w>
stand ing</w>
e ."</w>
S oci
li k
pre t
com b
it ing</w>
iter ary</w>
lif e.</w>
an k</w>
sc ri
B u
mar k
R O
f o
al th</w>
Ar chi
whe ther</w>
mar ried</w>
M ed
li es</w>
li g
de ath
f em
fin al</w>
a h</w>
enti al</w>
ing -
" E
h us
tic s</w>
1 8</w>
hund red</w>
serv ice</w>
1. E.
f all
k ind</w>
e :</w>
c y
in es</w>
tion s.</w>
m et</w>
ard ed</w>
u tion</w>
m e.</w>
S a
F ir
m ed</w>
ev ent
beh ind</w>
A t
s us
18 5
su gg
pro mo
ne t
S i
ha m</w>
ard ,</w>
beli ev
im medi
inc re
( 199
( 201
wor ds</w>
l d,</w>
k er</w>
sp i
poli tical</w>
G i
A cc
su d
i or</w>
1 5</w>
3 0
in vol
anc e.</w>
wom en</w>
pri v
occ up
er r
, ”</w>
on es</w>
g ar
Hou se</w>
hou se
ta king</w>
stor y</w>
Ch rist
b ac
F oot
loo king</w>
4 )</w>
f oo
fe el
h ur
R ef
ish ing</w>
o thers</w>
h un
b al
busin ess</w>
w ards</w>
con duc
re qu
p al
jo ined</w>
in f
se par
x im
A n</w>
as k
re ached</w>
her .</w>
st .</w>
s we
de termin
S en
for man
ing ton</w>
me th
c iv
w ill
establ ished</w>
m ur
l ic
bl ack</w>
de gre
ph ys
re -
L u
ni fic
com ing</w>
th -
ti es.</w>
iv er</w>
mon ey</w>
M i
V ic
F in
ke y</w>
s ."</w>
p h</w>
man ag
le ave</w>
en em
on e.</w>
C ath
Indi an</w>
M at
6 )</w>
p ,</w>
5 )</w>
D .</w>
bec om
r ul
hand s</w>
" Wh
es pec
P res
' d</w>
histor y</w>
d le</w>
A C
ch ing</w>
f ut
par ty</w>
Coun c
C re
v iv
re spec
mom ent</w>
7 )</w>
se arch</w>
b all
str ong</w>
ed s</w>
comm and
includ e</w>
est ed</w>
sc en
As soci
b il
enc es.</w>
wi fe</w>
8 )</w>
some times</w>
ach ing</w>
er ous</w>
min ut
ec t
J e
mem ber
' ll</w>
li ving</w>
3 0</w>
do or</w>
c .</w>
g ri
b es
V ol
prov id
wro te</w>
consider ed</w>
2 4
me as
I ll
B ro
n ar
am ,</w>
k ind
Dr .</w>
su per
di g
an s,</w>
cop y
V ir
for th</w>
ind ic
u l</w>
M ag
om in
c all</w>
ffer ed</w>
thr ough
B ra
C ali
sa y
ast ern</w>
si on,</w>
sh ou
Whi le</w>
descri bed</w>
Found ation</w>
ent al</w>
s mil
as k</w>
wor k,</w>
er -
an k
Joh n
al s,</w>
J er
buil d
c ros
comp ani
tw ent
. )</w>
it y
offic ial</w>
in ning</w>
s our
Char les</w>
maj or</w>
de .</w>
re ly</w>
at ure</w>
shi ps</w>
any thing</w>
et .</w>
wor ked</w>
em ent,</w>
beli eve</w>
ne arly</w>
M er
ac tion</w>
ab ility</w>
es sion</w>
f le
su pp
iz ed</w>
publ ic
pro mis
a j
cre ated</w>
on s,</w>
end s</w>
op s</w>
del i
B al
part ment</w>
tim e.</w>
ing s.</w>
tr ou
car ried</w>
fir e</w>
fac t</w>
f t
sa ys</w>
ad ,</w>
w in</w>
Al l
c row
J .</w>
ound s</w>
x ed</w>
la ugh
2 2
us es</w>
D em
k ept</w>
D is
Europe an</w>
k in
M ac
mil itary</w>
18 4
s --
sol di
ore ,</w>
it te
Ma j
as sist
ec tion</w>
1 1</w>
B as
espec ially</w>
nat ural</w>
Presid ent</w>
st ep
at er</w>
ne igh
b our
Dav id</w>
Ro yal</w>
ex amp
ep is
we b
In ter
child ren
er n
un d</w>
0 )</w>
G RE
S an</w>
mus ic
be auti
ti es,</w>
in j
organi z
ti g
Mic ha
for ni
Coun ty</w>
ther .</w>
ar s</w>
F il
fre qu
y e</w>
charac ter</w>
.. .</w>
ast ,</w>
Ger man
y er</w>
sy m
rema ined</w>
av ail
de stro
tain ing</w>
H igh</w>
ver sion</w>
wa y,</w>
tur al</w>
ch urch</w>
pre sid
Ro bert</w>
P at
i ed</w>
d at
9 )</w>
ne ed</w>
p ul
comp os
Lond on</w>
do m</w>
ad y</w>
Engl and</w>
N o</w>
simil ar</w>
um ,</w>
ac qu
Cali forni
os pit
ar t
si on.</w>
princ ip
ess ed</w>
fe et</w>
G l
let ter</w>
sh e
oun d,</w>
pa id</w>
tr adi
fron t</w>
id enti
I T
for ce</w>
t in
an t,</w>
ec u
ini ti
ar tic
ure .</w>
( "
ob jec
per forman
ab le,</w>
r an</w>
g et
el .</w>
S ci
ste ad</w>
m en,</w>
re ti
B en
1 6</w>
C al
c ast</w>
Ch urch</w>
* *
on al</w>
l er</w>
ou t,</w>
E ar
tr ue</w>
de l</w>
ver ,</w>
W ash
centur y</w>
p le</w>
olog ical</w>
ession al</w>
play er</w>
s ac
b a
foot ball</w>
d ang
us ually</w>
as .</w>
h u
P or
ell s</w>
mat ter</w>
char ge</w>
sit u
acc ess</w>
v oc
oo d,</w>
x i
A M
R os
z z
1 4</w>
r on
p as
re d
mer c
si x
Gover n
le ad</w>
n a</w>
pl es</w>
re al</w>
an e</w>
c es</w>
pla ying</w>
wor king</w>
dre w</w>
_ _
land s</w>
ap pointed</w>
ing ly</w>
r adi
b it</w>
c are</w>
so ,</w>
E ast</w>
li am
ess or</w>
e )</w>
Ill ustr
Fir st</w>
mar ri
ser i
2 3
T er
Gre at</w>
f ound
ex am
ei ve</w>
peri od</w>
re ally</w>
I m
cer tain
per c
ac tiv
th ough
oun t</w>
it self</w>
he ar</w>
tor y</w>
il s</w>
am b
w ood</w>
t our
tor s</w>
f f</w>
S up
es tiv
w .
ec onom
Col lege</w>
land .</w>
up ,</w>
f ell</w>
vo ice</w>
n on-
/ /
ing u
prov ed</w>
P au
as h</w>
P la
f ar
5 0
poli tic
It ali
a king</w>
ul arly</w>
on i
h ard</w>
tur n</w>
Thom as</w>
e al
S un
self .</w>
: //
th ou</w>
be y
att en
ww w.
oc cur
des ig
N av
No .</w>
ar rang
tt p
h ttp
Hen ry</w>
ren g
rec ord</w>
g ,</w>
charac ter
em ent
es :</w>
seem s</w>
ation :</w>
nor th</w>
S M
R iver</w>
Ref er
I I</w>
g er</w>
im ag
p ing</w>
M id
es cap
recog ni
tit le</w>
e m</w>
prov ide</w>
wor d
de fe
wh at
cl ass</w>
anc ed</w>
R I
r a</w>
acc ording</w>
s atis
O R</w>
vo ic
D ev
elec ted</w>
1 3</w>
milli on</w>
an ish</w>
S am
ei ght</w>
sig n
as hi
in depend
de fin
br ing</w>
il ,</w>
announc ed</w>
n a
th en,</w>
1 7</w>
ti n</w>
pol ic
loc k</w>
wa y
fri end</w>
ev ision</w>
po int
er g
c ause</w>
Pro f
U N
clu b</w>
tu al</w>
x ,</w>
me et
Histor y.</w>
ex ic
c ut</w>
no te</w>
2 6
nat ure</w>
oc r
mod ern</w>
P a
ri ght
offic e</w>
Phi li
T ri
f ounded</w>
per haps</w>
out side</w>
ber ,</w>
cl ass
J ew
m ist
en sive</w>
m ad
to tal</w>
unic ip
ell ed</w>
ma kes</w>
inter est</w>
hop e</w>
H am
S ain
prov ided</w>
2 5</w>
s ocial</w>
cont ribu
t ar
S T
in formation</w>
se ven</w>
chi ef</w>
s ons</w>
ha bit
t -
m a</w>
law s</w>
com peti
te en</w>
s ent
Vir g
vi de
par ts</w>
o red</w>
add ed</w>
sub ject</w>
st reng
des ign
Christi an</w>
form s</w>
w ood
D E
I' ll</w>
p il
du ce</w>
ch ur
wor k.</w>
2 7
par ag
u la
Dist rict</w>
t op
pop ular</w>
spec ial</w>
ke ep
am a</w>
al ist</w>
in -
M exic
wh y</w>
' re</w>
y l
li ved</w>
No t</w>
a ther</w>
Pro v
k e,</w>
H ow</w>
P h
k ing
sub jec
sou th</w>
ear s</w>
ent ered</w>
0 s</w>
ant ly</w>
g un
li e</w>
enc ed</w>
" Th
ent er
associ ated</w>
los op
as c
P re
whi ch,</w>
un ity</w>
pro gram
l ess
grad u
w ide</w>
H or
L iterary</w>
at e.</w>
resul t</w>
tion ed</w>
as i
th ing
ist s</w>
ri t</w>
B ook</w>
bo ard</w>
W .</w>
exc ept</w>
e --
er e,</w>
g la
year s,</w>
all .</w>
I ts</w>
tre at
hal f
C a
qu ali
er c
ac tive</w>
i ther</w>
b lo
ou s,</w>
2 8
Archi ve</w>
Micha el</w>
R .</w>
dist rict</w>
develop ment</w>
m al
sig nific
tr ad
v es,</w>
ac hi
g one</w>
beg inning</w>
prob ably</w>
( S
st op
ati c
con trac
ex pla
tre m
gener ally</w>
ide a</w>
copy right</w>
qu ick
ne l</w>
reas on</w>
t a</w>
fe el</w>
e k
and .</w>
me et</w>
y r
stit ute</w>
s at</w>
dist inc
pris on
ound .</w>
her self</w>
year s.</w>
mor ning</w>
necess ary</w>
ri g
gent le
D el
l .</w>
m ing</w>
Qu e
val u
pro ble
R u
in ation</w>
po t
G ra
Pau l</w>
Cath ol
comp an
hi c
ep h
5 0</w>
Rom an</w>
com es</w>
U S</w>
Jap an
n ess,</w>
LE T
fin e</w>
be fore
C ong
s co
si r
si ble</w>
long er</w>
daugh ter</w>
Coun ty,</w>
br an
c ust
thous and</w>
O ly
th or
ear li
2 .
T ra
ob serv
at or
pro ce
http ://
v e.</w>
w ish</w>
lead ing</w>
st one</w>
ac t
through out</w>
su ffic
Australi an</w>
op ini
accoun t</w>
mo ve</w>
le -
mil es</w>
Sch ool
y our
Y ou
f all</w>
Acc ording</w>
A si
self -
18 3
ti z
ph o
W om
Mus e
Refer ences.</w>
curren t</w>
GRE E
org an
S ta
fut ure</w>
th is,</w>
pre v
H u
est s</w>
g ard
um ent
( 198
I ,</w>
writ ing</w>
won der
L o
ni ght
S hi
Jo se
" It</w>
F .
it ation</w>
s -
st on</w>
individ ual</w>
cl as
re pe
f y</w>
e ast</w>
it ch
fort un
co -
priv ate</w>
to ,</w>
produc tion</w>
" A</w>
m ach
sp or
st ed</w>
Ac adem
C la
e ,"</w>
ac y</w>
Ale x
A ir
at .</w>
al s.</w>
str ong
a u</w>
f unc
gir l</w>
lif e,</w>
care er</w>
T V</w>
t emp
201 0</w>
ubl ic
G o
an -
al is
CH AP
partic ip
in stead</w>
.. .
r y
J es
d es</w>
low er</w>
bro ad
now ,</w>
a ke</w>
c u
le vel
l am
sh ar
{ ~
da y.</w>
ag o</w>
AL L</w>
Gr ou
B att
ef ul</w>
op port
sc re
" the</w>
B or
1 9</w>
un g</w>
et h</w>
con stitu
ov i
chang ed</w>
Di rec
f eder
prof essional</w>
record ed</w>
hand ,</w>
h our</w>
om b
langu age</w>
ish ,</w>
por ts</w>
I s</w>
LET TER</w>
ed :</w>
C ast
in k</w>
h ow
Pr inc
ex t</w>
con st
ri s</w>
in k
S k
y m
ap plic
es tim
us "</w>
circ um
B a
I re
ri ver</w>
" K
g ain
1 st</w>
develop ed</w>
0 .
S im
fa ther
mar ked</w>
allow ed</w>
al -
tow ard</w>
ch est
w as,</w>
p ast</w>
C A
B .</w>
fin ished</w>
M el
u k
ro le</w>
2 9
loo d</w>
se a</w>
coun tri
direc ted</w>
H el
O ther</w>
Ar my</w>
p ut
L .</w>
partic ular</w>
w ise</w>
al one</w>
[ Illustr
there fore</w>
rap h</w>
T or
ir ,</w>
ut y</w>
S I
p s,</w>
an 's</w>
S tr
fic ation</w>
F o
F ri
man .</w>
j us
d in
lo t</w>
chi ld</w>
ab le.</w>
CHAP TER</w>
it 's</w>
succ e
t end
g ood
stud y</w>
avail able</w>
gu lar</w>
ri ch</w>
R A
on s.</w>
comp let
ad ministr
A ir</w>
C up</w>
of ,</w>
ex per
ast er</w>
appe ar</w>
dar k</w>
pa y</w>
1 –
ed ing</w>
ro ll
commun ity</w>
l iter
b y
S m
Pet er</w>
gu it
la un
it z
lat ter</w>
Counc il</w>
an al
in ess</w>
inter national</w>
l es,</w>
b le,</w>
K ar
ter m</w>
en jo
great er</w>
H igh
k illed</w>
M et
am ed</w>
mul ti
le vel</w>
t ures</w>
bey ond</w>
bro ther</w>
E li
b ow
ish op</w>
ag g
ell ing</w>
S ar
wa y.</w>
C O
arm s</w>
H .</w>
sen se</w>
em ent.</w>
spe ak</w>
th es
sc ar
Stat es.</w>
pro jec
W at
t y.</w>
m ir
la id</w>
N ow</w>
D ar
J ud
sec re
mor n
1 ,
t echn
s old</w>
peri od
on ed</w>
m el
10 0</w>
P op
previ ous</w>
contro l</w>
other ,</w>
The ir</w>
GREE K</w>
bi g</w>
Cap tain</w>
lin es</w>
E g
ec h</w>
res ol
a )</w>
comp et
st ates</w>
R el
prac tic
con v
E r
poin ts</w>
p an
un te
s li
{~ GREEK</w>
sa y,</w>
N i
beauti ful</w>
giv ing</w>
Rich ard</w>
leng th</w>
w anted</w>
again ,</w>
B ut
t an
l u
dec ided</w>
de t
ta kes</w>
ne t</w>
scri p
Sp ec
tel evision</w>
al ed</w>
man u
knowle dge</w>
p ite</w>
bo y</w>
and er</w>
E S
uni vers
l ist</w>
in '</w>
SM ALL</w>
S um
mon ths</w>
wh ere
th en
Cent ral</w>
y a</w>
w is
friend s</w>
ra ised</w>
and s</w>
Tw o</w>
cam pa
agre ement</w>
ty p
inc reas
s ound</w>
heav y</w>
Russi an</w>
S ol
sur r
ex hi
T hi
year ,</w>
cle ar</w>
fer ence</w>
rec eive</w>
d res
Rec ord
ust ri
ques tion</w>
p ati
1 -
li ber
H on
ri c</w>
car ri
T ex
d ol
Ang el
r y,</w>
S ing
um e</w>
ul t</w>
bl ed</w>
stud ents</w>
me an</w>
forc ed</w>
─ ─
west ern</w>
" What</w>
gra ph
ed ly</w>
bu l
de ep</w>
r ace</w>
p et
b at
g ol
ac e
anc ient</w>
ent ed</w>
ou d</w>
) ;</w>
B est</w>
sud den
pres er
og rap
It 's</w>
ship ,</w>
Canad ian</w>
gra m</w>
dec la
person al</w>
th ro
bu t
A T
p ass</w>
w all
-- the</w>
c amp
v ice</w>
R ail
" And</w>
eff ect</w>
1 00
cri tic
li v
M os
S o
see m</w>
pr in
jud g
des er
disc us
s ort</w>
201 1</w>
tri ed</w>
Par k</w>
ther e,</w>
in e.</w>
s ,"</w>
ad op
Oly mp
de ta
p un
bel ong
gr and
care er.</w>
West ern</w>
hi ll
said .</w>
per formed</w>
N ic
r d</w>
run ning</w>
ser ve</w>
ograph y.</w>
leav ing</w>
c au
aver age</w>
Sp anish</w>
hous e,</w>
G ar
w it
200 6</w>
al low</w>
it ec
Chi c
reg ul
I tal
wor th</w>
g ro
der iv
Ch ur
cop y</w>
am .</w>
don ations</w>
de al</w>
an o</w>
sh or
M any</w>
ni ght,</w>
L uc
w el
ar my</w>
wi f
( _
E duc
ou te</w>
2 4</w>
fam ili
im pres
Mar i
4 0
ld n't</w>
re gular</w>
Fr ance</w>
att ac
ment al</w>
des c
n ess
per form
F ol
int en
th i
my self</w>
Itali an</w>
2 1</w>
e z
re ported</w>
Col on
Al though</w>
R a
tr ack</w>
E arly</w>
id es</w>
ard .</w>
sy n
itte e</w>
s low
B re
pur su
ur b
cri p
sp ent</w>
A ward</w>
well -
Cour t</w>
st -
Div ision</w>
cri ed</w>
sa f
200 8</w>
tu red</w>
servic es</w>
L ady</w>
S il
f ru
S he
st ly</w>
on 's</w>
Is ra
t able</w>
adv ant
ac e,</w>
u b</w>
at trac
2 –
s l
ur y</w>
J ack
vi a</w>
origin ally</w>
G .</w>
) :</w>
or s,</w>
appear ance</w>
M ost</w>
o l</w>
pur ch
O N</w>
religi ous</w>
O ld</w>
hour s</w>
requi red</w>
pow er
appear s</w>
S ince</w>
W in
-- and</w>
l es
con ven
pro g
Br it
resp ond
de ep
C ur
at ed,</w>
au di
L ic
AN D</w>
g ames</w>
M ur
B et
high er</w>
g old</w>
li fe
E S</w>
Govern ment</w>
M ary</w>
star t</w>
K e
b ol
b ility</w>
n y</w>
degre e</w>
por tion</w>
phi losop
G al
Japan ese</w>
Le g
T om
c ut
re ve
3 –
comm is
j ourn
is c
con sequ
ca used</w>
t ric
re d,</w>
fel low
writ er</w>
( 197
includ es</w>
comple te</w>
leg al</w>
f un
s ",</w>
Associ ation</w>
desig ned</w>
201 2</w>
partic ularly</w>
larg est</w>
B ul
sh own</w>
edi tion</w>
Car ol
Uni on</w>
Chin ese</w>
p on
der ,</w>
vir on
la im
ati ves</w>
. [
der ed</w>
did n't</w>
clo sed</w>
De partment</w>
man 's</w>
b on
addi tional</w>
re search</w>
sub sequ
V en
O p
circum st
adem ar
ver s</w>
T .</w>
c li
fam ous</w>
V .</w>
m unicip
sh ot</w>
Virg ini
di e</w>
for ward</w>
um ent</w>
pl at
6 –
m as
web site</w>
num erous</w>
de ad</w>
commun ic
a x
ill s</w>
boo ks</w>
form ula
ar g
well ,</w>
ar .</w>
av o
influ ence</w>
M em
m os
bri dge</w>
La ke</w>
ar ies</w>
fil e</w>
D o</w>
B C</w>
us h</w>
feat ures</w>
d y</w>
re fl
200 9</w>
ou t.</w>
~ }
y al
con ver
F eder
immedi ately</w>
fa il
m ary</w>
c e,</w>
sci enti
H ow
er ial</w>
P .</w>
re vol
cent ral</w>
ev en
z a
eng ine
addi tion</w>
est ,</w>
N ot
g lo
2 2</w>
per m
car ry</w>
elec tion</w>
L a</w>
C as
dis covered</w>
k a</w>
n ation
tr ademar
pur pose</w>
G en
cl ub
lik ely</w>
proper ty</w>
Ma y
sm all
roc k</w>
er ly</w>
att ack</w>
L aw
id ,</w>
se t
S ur
Par liam
si ght</w>
ush ed</w>
D o
acc ep
in o</w>
st age</w>
ty pe</w>
A p
ow s</w>
3 5
collec tion</w>
Stre et</w>
E C
r ate</w>
sp ap
t ed,</w>
th ou
com pl
de ar</w>
a y,</w>
c le</w>
rel ated</w>
r o</w>
th ing,</w>
h ood</w>
seas on.</w>
cour t</w>
U p
man ner</w>
do ing</w>
ali z
S qu
s bur
cra ft</w>
C he
n av
op en
chi ef
ne ither</w>
[Illustr ation:</w>
tu ally</w>
F .</w>
T re
er "</w>
k et</w>
get ting</w>
f und
g .</w>
D ou
f al
tal k</w>
sid e,</w>
too ,</w>
parag raph</w>
direc tly</w>
ic ally</w>
ent h</w>
j our
rep lied</w>
200 7</w>
P enn
H um
gre w</w>
ric ul
X X
f oc
a i</w>
tem per
ordin ary</w>
ed it
high est</w>
Wh it
al d</w>
v al</w>
dist ance</w>
rema in</w>
ou red</w>
z i
Pr ince</w>
ex ecu
cour se,</w>
sum mer</w>
happ y</w>
sec ond
mat ch</w>
you .</w>
M A
col on
intro duced</w>
dist ric
Mu sic</w>
air s</w>
l v
Gr and</w>
( )</w>
l in</w>
f illed</w>
can 't</w>
in str
Par ty</w>
T ro
el y,</w>
I' ve</w>
3 .
lab or
i -
un less</w>
I L
b .</w>
e th
attemp t</w>
shi p.</w>
f ro
d ate</w>
in al</w>
ro se</w>
" But</w>
3 6
b ound</w>
o ffered</w>
e ar</w>
ref er</w>
piec e</w>
Cathol ic</w>
lo g
again .</w>
ti l
. _
B ir
o x
bel ow</w>
be l</w>
do w</w>
c uri
show s</w>
Hist ory</w>
manu fac
believ ed</w>
y ."</w>
cop ies</w>
success ful</w>
individ u
E lec
ta x</w>
u li
low ing</w>
sec tion</w>
b ad</w>
ed ic
at ory</w>
atten tion</w>
c ost</w>
der .</w>
formula _
E v
up .</w>
exp ected</w>
T own
y :</w>
p age</w>
2 3</w>
auth or</w>
d '
4 –
n ative</w>
pho to
h ospit
c lim
des ign</w>
ad ed</w>
el d</w>
vil le</w>
5 –
ag ree</w>
f ashi
n d</w>
at 's</w>
ver se</w>
vide o</w>
ev ent</w>
ver .</w>
s in
ter s,</w>
read ing</w>
L ab
ic i
enti re</w>
ev ents</w>
D en
le y,</w>
bre ak
’ t</w>
sa ve</w>
res er
op ening</w>
sp ace</w>
il .</w>
Min ister</w>
cre d
L A
st e</w>
e u
ap paren
w ou
ci tiz
show ed</w>
Eg yp
cel ebr
c ru
il e</w>
year .</w>
d og
II .</w>
" ),</w>
Fl or
ben ef
gu n</w>
giv es</w>
curren tly</w>
or ial</w>
N at
forc es</w>
doub t</w>
sup por
Rep ublic
s am
v isi
2 -
arri ved</w>
fi gh
201 4</w>
d a</w>
fer red</w>
in struc
gre en</w>
construc tion</w>
ar y.</w>
J am
Ar ch
mo ther
op pos
M oun
R ob
le d,</w>
sty le</w>
are ,</w>
half -
m ut
4 -
s ens
list ed</w>
mis sion
ep tion</w>
ing ing</w>
( C
an ch
br ary</w>
ch ec
peop le,</w>
H o
ari an</w>
~} {~GREEK</w>
w as
7 –
201 3</w>
ig r
T el
vis it</w>
En g
. org
c ab
regi on</w>
four th</w>
ar m</w>
merc ial</w>
ad .</w>
spi rit</w>
eas ily</w>
se x
pap er</w>
ow er</w>
at ed.</w>
us ual</w>
and ed</w>
an s.</w>
distribu tion</w>
in stitu
l li
ani a</w>
ag e
Soci ety</w>
inv es
Gre ek</w>
E s
mar k</w>
lim ited</w>
u n</w>
represent ed</w>
an '</w>
el i
be aut
att ended</w>
rang e</w>
Sw ed
present ed</w>
ing ;</w>
spo ke</w>
R ed</w>
it able</w>
tra v
consider able</w>
17 9
comple ted</w>
no t,</w>
F am
over ,</w>
n one</w>
dist ingu
answ ered</w>
18 0
si ze</w>
m ess
los s</w>
new spap
D or
strang e</w>
vol unte
y el
Col um
inves tig
k er
F I
de but</w>
proc ess</w>
= =
im ent</w>
( the</w>
feel ing</w>
D ut
O '
under stand</w>
room ,</w>
de b
educ ation</w>
sp r
ast .</w>
is ing</w>
  k
i es,</w>
f arm
f ood</w>
b le.</w>
cl ud
fil m
Ac t</w>
man n
ed y</w>
con sci
n es
f ast</w>
por ary</w>
i f
su s</w>
L y
Ir ish</w>
sudden ly</w>
nor thern</w>
i i.</w>
fol low</w>
V o
am ount</w>
L at
ef ore,</w>
mid dle</w>
exp lo
P en
fur n
s end</w>
ul l</w>
pro min
n omin
tor ,</w>
In stitute</w>
0 s,</w>
ent s,</w>
2 8</w>
Indi a</w>
is s
T i
mag az
plac es</w>
r on</w>
bre ak</w>
y )</w>
every thing</w>
e uten
Ar t</w>
spir it
od s</w>
c ar</w>
Ed ward</w>
t est
H ere</w>
b e,</w>
wh o,</w>
ty -
ter ri
foo t</w>
2 6</w>
draw n</w>
con fir
b es</w>
qui red</w>
uc k</w>
mar ket
re ach</w>
ma ster</w>
auth or
sur viv
plac e,</w>
M as
C r
3 -
fe ar</w>
add res
ech an
phys ical</w>
Cl ub</w>
fore ign</w>
the at
de vo
f ing
go es</w>
fa ir</w>
un t</w>
order ed</w>
pret ty</w>
b lood</w>
er a</w>
H all</w>
fem ale</w>
minut es</w>
St e
her e,</w>
S t</w>
St udi
te ach
event ually</w>
ter rit
ab le
Comp any</w>
ri ghts</w>
seas on,</w>
int el
batt le</w>
S at
le ague</w>
sh o
ist ,</w>
st ated</w>
ture .</w>
fin ally</w>
O b
2 7</w>
ric k</w>
w ,</w>
ent s.</w>
D I
Afric an</w>
rema ins</w>
pro duce</w>
S ub
evid ence</w>
ind ustr
enti rely</w>
him self,</w>
wh it
spe ak
D oc
rele ase</w>
c ell
pro ve</w>
201 5</w>
1. F.
C E
wil d</w>
w ear
e Boo
certain ly</w>
anc y</w>
invol ved</w>
re placed</w>
C ro
bl ue</w>
pres s</w>
fl ic
trans l
direc tor</w>
fe e</w>
B ec
Au gu
ture ,</w>
oo ds</w>
v es.</w>
bo ys</w>
other .</w>
duc tion</w>
tw el
nam es</w>
Vic tor
J ack</w>
"O h,</w>
sett le
Li ber
char g
sou thern</w>
no vel
G ol
pa ir</w>
qu e
ow .</w>
C ri
K h
Bl ack</w>
pro gram</w>
r ad
ward ,</w>
al tern
no tic
C are
bro ken</w>
el ess</w>
er s
sk y</w>
ro r</w>
se at</w>
fin anc
ra y</w>
sch ol
win ning</w>
ant s,</w>
pres ence</w>
S pr
Americ a</w>
feat ured</w>
s mo
sp l
3 8
is on</w>
es )</w>
Y oun
um .</w>
ener g
im m
T om</w>
et t
ish ment</w>
pp ing</w>
K ore
exc laim
hous es</w>
s n
requi re
Dem ocr
oo d.</w>
r am
3 4
ow ned</w>
3 7
bro ke</w>
conf id
n ine</w>
he al
b al</w>
hus band</w>
cust om
meet ing</w>
dar k
fi ght</w>
comm and</w>
Jose ph</w>
coun c
sa ying</w>
fel low</w>
Chi ef</w>
pa y
f er</w>
C lar
at ors</w>
appro xim
z a</w>
some what</w>
J on
g utenber
Sec ond</w>
great est</w>
cau ght</w>
ut er</w>
sp read</w>
gutenber g
http:// www.
direc t</w>
a e</w>
ei gh
er o
Stat es,</w>
head ,</w>
I N</w>
2 nd</w>
int ended</w>
con tr
Z eal
is s</w>
U R
nat ur
new s</w>
S E
sp ort</w>
val ue</w>
foot ball
ch em
i es.</w>
Pe op
inc id
con tains</w>
difficul t</w>
ar ing</w>
D un
R ed
mat eri
( 196
d s,</w>
ret ary</w>
cas es</w>
t om
A no
Wh ite</w>
por tra
can did
Foot ball</w>
Muse um</w>
succ ess</w>
ur ity</w>
e ag
Sec tion</w>
gir l
201 6</w>
Nor thern</w>
struc k</w>
H al
sub st
larg er</w>
se l</w>
twent y</w>
pol ice</w>
becom ing</w>
te l</w>
bo at</w>
com par
O per
c over</w>
previ ously</w>
r i</w>
F ur
fa ir
f ear
mov ing</w>
N O
our s</w>
I S</w>
P ublic</w>
M ill
se arch
ill ustr
A G
F estiv
R am
pl an</w>
cont em
ev ening</w>
decla red</w>
t ol
a ther
simp ly</w>
aw arded</w>
ish es</w>
we ek</w>
i a,</w>
" J
O ur</w>
world .</w>
epis ode</w>
blo od
tra ining</w>
pla ys</w>
ph r
sum ed</w>
fig ure</w>
id s</w>
C at
ti ll
mo di
cap ital</w>
A B
O x
r ying</w>
ic a</w>
ali zed</w>
ord ers</w>
res h</w>
hor se</w>
incre ased</w>
Du ke</w>
ag es,</w>
Offic ial</w>
g er
( or</w>
f la
u ght</w>
a ur
sig n</w>
Cent er</w>
ob ject</w>
fa ther,</w>
te ams</w>
con vers
Champion ship</w>
5 -
des i
Academ y</w>
see ing</w>
wor ld,</w>
F e
cla im</w>
. "
k ing,</w>
mou th</w>
c old</w>
ter s.</w>
c hampion
b ed
our ,</w>
6 -
Lou is</w>
ic ,</w>
cha p
n ess.</w>
tro ops</w>
mean ing</w>
becom es</w>
D a
simp le</w>
Wash ington</w>
Qu een</w>
be ar</w>
4 0</w>
answ er</w>
presid ent</w>
2 9</w>
el op
Grou p</w>
Ju li
M ass
ey e</w>
Prof essor</w>
I l
ass em
rel ation
N B
lear ned</w>
re member
an t.</w>
C iv
re mark
un t
com mercial</w>
ent r
li ance</w>
vari ety</w>
sy lv
we ight</w>
rail way</w>
is "</w>
ound ing</w>
at a</w>
achi ev
c ro
wat er,</w>
8 0
per mission</w>
ch ance</w>
IN G</w>
pass ing</w>
quick ly</w>
M y
ri d
9 –
f t,</w>
e ",</w>
experi ence</w>
rec i
reas on
re port</w>
8 –
o 's</w>
hi t</w>
sle ep
perf ec
G ir
ga ther
Per son
neigh bor
radi o</w>
hard ly</w>
is land</w>
P an
bl ing</w>
song s</w>
ga in</w>
Au stri
c av
" We</w>
rele as
f oun
m al</w>
ran k</w>
sou l</w>
ig u
per sons</w>
Re gi
bo ard
mov ement</w>
lat er,</w>
ris e</w>
T ran
Be fore</w>
su ffer
ma y
co ach</w>
mer ely</w>
st op</w>
claim ed</w>
prev ent</w>
L et</w>
pro ject</w>
bo di
C y
tra in</w>
inc or
w ind</w>
C ul
st ay</w>
M I
sel y</w>
l es.</w>
cor rec
s on.</w>
pa in</w>
in s,</w>
min ist
Maj or</w>
Lond on,</w>
200 5</w>
str y</w>
s ".</w>
Ano ther</w>
M E
sa il
mon th
pe l</w>
Ar th
or ing</w>
en a</w>
hol ding</w>
men tioned</w>
200 0</w>
s tic
G il
stat us</w>
o '
ti vi
determin ed</w>
lad y</w>
u ff
St ar
dg e,</w>
eas y</w>
tw o-
offic er</w>
um ents</w>
H av
he alth</w>
si t</w>
Li fe</w>
x .</w>
ash ed</w>
on e-
wr ite</w>
prov inc
independ ent</w>
c ham
effor ts</w>
adm ir
tr ying</w>
th u
is l
as su
an i</w>
compos ed</w>
o "</w>
it ;</w>
are as</w>
provid ing</w>
ill ,</w>
des ire</w>
es '</w>
T al
num ber
S id
B ud
ing ton,</w>
reg ard</w>
li ves</w>
H y
St eph
J us
' ve</w>
sa v
F ar
is tic</w>
cha ir
Sou thern</w>
li gh
g all
arch itec
pre par
rema ining</w>
shou l
my ster
es ."</w>
on line</w>
200 4</w>
P aci
ant a</w>
sus p
) "</w>
ab sol
"W ell,</w>
performan ce</w>
G am
s light
or ies</w>
col lege</w>
tra vel
D ef
incre ase</w>
tour nam
offic ers</w>
agre ed</w>
wor ks.</w>
ell a</w>
Californi a</w>
equ ip
exc ell
ic h</w>
ber g</w>
bu t,</w>
Penn sylv
me ant</w>
3 9
0 –
c k
hol ds</w>
" V
z ,</w>
F ore
contin ue</w>
perf ect</w>
S ovi
e e</w>
pro per</w>
mat erial</w>
run s</w>
b ase</w>
vis it
In formation</w>
ex erc
J ac
y --
al ong
R h
ent er</w>
Geor gi
R adi
lin ed</w>
dom in
Ar m
int ell
acc id
frequ ently</w>
za be
el se</w>
ther e.</w>
countr y,</w>
shi re</w>
b ing</w>
ac es</w>
sur face</w>
ac tually</w>
descri p
Euro p
i o</w>
inde ed</w>
an nel</w>
let ters</w>
h a</w>
defe ated</w>
th ing.</w>
struc ture</w>
cri min
W ol
en viron
L os</w>
pa red</w>
re view
keep ing</w>
h e,</w>
t un
f ast
Lic ense</w>
div ision</w>
intel lig
Col leg
play ers</w>
.. ..
wee k
lo v
Mon t
tru th</w>
bl es</w>
Yor k
te :</w>
it ting</w>
h at
e ase</w>
R en
own er</w>
tr ade</w>
le 's</w>
equ al</w>
ain ,</w>
up per</w>
re member</w>
3 :
sh are</w>
de st
re plac
after no
ti s</w>
po et
? '</w>
R og
ver si
v an
4 5
refer red</w>
ab il
ad ap
signific ant</w>
T echn
Is land</w>
separ ate</w>
div ided</w>
princip al</w>
Eli zabe
se vent
dom ain</w>
Res ear
Mar k</w>
ing :</w>
twent y-
ati n</w>
Bra z
wor ks,</w>
prac tice</w>
pur pos
e y,</w>
a ks</w>
dra w</w>
im prov
** *</w>
em o
K o
r ough</w>
ap ol
B us
it a</w>
t ed.</w>
ic e,</w>
m ere</w>
l ack</w>
k y</w>
opport unity</w>
fac e,</w>
af ra
or s.</w>
ab and
T y
pro posed</w>
0 s.</w>
Flor id
c e.</w>
T u
Canad a</w>
leav es</w>
e astern</w>
k ne
stre t
scen e</w>
e !</w>
meth od</w>
con qu
Australi a</w>
par ti
L ar
Fil m</w>
t 's</w>
Em per
ear th</w>
Y O
sp ring</w>
The at
y ,"</w>
ob tained</w>
in no
fa iled</w>
A th
streng th</w>
su n</w>
ili ties</w>
occup ied</w>
chang es</w>
Euro pe</w>
sh oo
ap point
ru g
awa y,</w>
L ittle</w>
d uty</w>
II I</w>
m echan
h ang
st ore
Dist ric
m ol
T O</w>
D e</w>
enc our
civ il</w>
sist er</w>
earli er</w>
us e,</w>
wal ked</w>
a p</w>
countri es</w>
Engl ish
T o
ach ,</w>
lear n</w>
4 .
per man
E ven</w>
17 8
B on
examp le</w>
ob tain</w>
condi tion</w>
busin ess
centur y,</w>
ind ustri
grow ing</w>
direc tion</w>
P O
k il
l ying</w>
ad j
resul ts</w>
Y our</w>
( 195
k e.</w>
sup pose</w>
lead er</w>
mo re,</w>
re moved</w>
r .</w>
B O
ma ster
gu il
pa th
hel ped</w>
A .
S and
e .
te gr
examp le,</w>
U K</w>
in habit
ful ,</w>
we ap
M od
cont act</w>
no ted</w>
Pa ul
t od
se y</w>
peop le.</w>
Por tu
school s</w>
thre at
sup ported</w>
Fran k
e ?</w>
i er</w>
gla d</w>
A ward
p sy
v ot
S c
arm ed</w>
su ff
grou ps</w>
pe ace</w>
feder al</w>
p ost</w>
L ov
bo t
mi x
-------- --------
a ",</w>
studi ed</w>
i "</w>
e ter
maj ority</w>
Ar ab
t est</w>
N E
sp ort
sco red</w>
men .</w>
rec ent</w>
w all</w>
Tr ans
" "</w>
high ly</w>
er ;</w>
B row
reti red</w>
ta x
( M
201 0,</w>
ang e</w>
squ are</w>
approxim ately</w>
l ing
E le
... .</w>
jo in</w>
en ough
-- a</w>
F lo
Batt le</w>
201 7</w>
n in
D ep
As sem
Ro ad</w>
si de.</w>
  –</w>
Foot note</w>
s om
H a
re sist
thin king</w>
tre es</w>
bi tion</w>
pre pared</w>
R ol
Par is</w>
v on</w>
r at
ev ol
B ol
ter ing</w>
suffic ient</w>
Fran k</w>
ou s.</w>
b ad
16 ,</w>
end er</w>
Sm ith</w>
acqu ain
gre g
P ap
Rep ublic</w>
ma st
" He</w>
en e</w>
cer em
ati vely</w>
Engl and,</w>
div isi
C ra
ann ual</w>
Bo th</w>
G ri
" If</w>
d y
accep ted</w>
connec ted</w>
God ,</w>
co m</w>
P RO
to :</w>
al le
l or
10 ,</w>
st ing</w>
cal cul
acc ord
T A
as p
n ation</w>
re al
ey es,</w>
soldi ers</w>
f t.</w>
C amp
Ch r
D ani
Colon el</w>
w ing</w>
f resh</w>
enem y</w>
ow ed</w>
oper ation</w>
effor t</w>
ob served</w>
re d.</w>
distribu ting</w>
D ,</w>
ne ar
u tion
"M y</w>
sur pr
n on
3 1</w>
secre t</w>
Sovi et</w>
deli ver
18 ,</w>
ac ted</w>
el ev
__ __
build ings</w>
ag on
ch os
beg in</w>
es i
Ger many</w>
S el
mo del</w>
ves sel
sti c</w>
ne ed
gr ound.</w>
C ham
mo stly</w>
sel ected</w>
u ,</w>
bo y
ta ught</w>
T a
( P
ban k</w>
to m</w>
ren t</w>
G ard
stra ight</w>
col um
on str
Ab out</w>
17 7
it ."</w>
ro b
sci ence</w>
bu s</w>
de al
ef ul
? ”</w>
pl ant</w>
succe eded</w>
prin ted</w>
bac k,</w>
k -
t led</w>
D ra
dis cover
mon th</w>
emplo y
cent re</w>
gir ls</w>
sh ort
un to</w>
r ub
L oc
bas ket
ho t</w>
stop ped</w>
opini on</w>
speci fic</w>
civ il
sett led</w>
toge ther,</w>
plac e.</w>
form erly</w>
201 1,</w>
6 0
satis fac
resp ect</w>
Jew ish</w>
tri c</w>
ar a</w>
Ser vic
Phili pp
A pp
sel l</w>
bl ack
Sain t</w>
U r
K en
ac compl
Su ch</w>
b loc
we ak
pri mary</w>
emplo yed</w>
Ch ina</w>
consist s</w>
so ft</w>
Mar tin</w>
R em
off er</w>
no vel</w>
issu ed</w>
R AN
down ,</w>
( 193
a id</w>
S an
bi a</w>
Li ke</w>
Comm ittee</w>
B ow
a ;</w>
mus ical</w>
fac t,</w>
L on
reg arded</w>
sil ver</w>
fi xed</w>
inde ed,</w>
ri ght,</w>
ment s,</w>
ther efore,</w>
clo th
c ely</w>
201 2,</w>
arti st</w>
concer ning</w>
marri age</w>
i ght
pass eng
b id
dr um
F er
3 3
( 19
v an</w>
da m</w>
"Y es,</w>
neigh bour
15 ,</w>
incor por
ac e.</w>
y i
Th er
th is
financ ial</w>
C le
sac ri
wee ks</w>
ha ir</w>
stand ard</w>
od es</w>
1 /
et y,</w>
res ent
co tt
su ffered</w>
d -
ograph y</w>
in form
dat a</w>
H ung
ig g
t ree</w>
know s</w>
moun tain
cent er</w>
j um
wor thy</w>
z en</w>
Dut ch</w>
ar ily</w>
rap id
mil e</w>
7 -
t ;</w>
G all
en ess</w>
eng aged</w>
no tice</w>
ac adem
o v</w>
ach es</w>
sour ce</w>
k i
Th us</w>
med ical</w>
intell ec
O hi
mark et</w>
well .</w>
ext ended</w>
p u
histor ical</w>
awa y.</w>
proc ess
K .</w>
V ill
te am
tur ning</w>
f ying</w>
J os
b y,</w>
1 ),</w>
B ill</w>
what ever</w>
Th ree</w>
mo re
" ).</w>
ani an</w>
tradi tional</w>
ac quired</w>
6 0</w>
sh el
pla in</w>
ni e</w>
Wh o</w>
L O
how ever</w>
ant s.</w>
countr y.</w>
pec uli
gain ed</w>
G a
B E
econom ic</w>
E astern</w>
An n
ac tivi
li on</w>
cor respond
ing "</w>
en s,</w>
hou se.</w>
all ed</w>
s .
moun tain</w>
any one</w>
ear th
ard ing</w>
19 ,</w>
bo tt
ti an</w>
Fol lowing</w>
p ast
doc ument
post ed</w>
ac ts</w>
k es
centur y.</w>
E ach</w>
O ut
He av
ed ge</w>
other s.</w>
sh op
201 3,</w>
end ,</w>
condi tions</w>
Rev ol
oppos ite</w>
ag es.</w>
Le agu
p ed
ris ing</w>
man aged</w>
u es</w>
12 ,</w>
i ans</w>
B an
sup posed</w>
f ish
b row
l -
S mi
ill ing</w>
Nor th
laun ched</w>
d anc
wal k</w>
g od
b s</w>
Gover nor</w>
h ost</w>
lo t
ch all
c ens
-- I</w>
son 's</w>
ve y</w>
long ,</w>
2 ),</w>
thou ght
ro yal</w>
< br
8 -
" '
F el
t ells</w>
emplo ye
won 't</w>
stre et</w>
answ er
bri ght</w>
air craft</w>
for t</w>
ste p</w>
st ain
F ort</w>
whi sp
tre as
Eng ine
200 3</w>
201 4,</w>
dro pped</w>
a c</w>
stit ut
E p
ob li
bro ther
St an
energ y</w>
er y,</w>
es ,"</w>
bo x</w>
200 9,</w>
J un
the e</w>
er al</w>
quar ters</w>
twel ve</w>
ad ing</w>
Bo ard</w>
gl ass</w>
n ur
stre am</w>
dem onstr
complet ely</w>
D om
10 .</w>
death ,</w>
you th</w>
er ship</w>
g ar</w>
J ourn
lo ved</w>
z ing</w>
n ers</w>
ren ce</w>
s h</w>
ch er</w>
fi re
L and
ser ious</w>
di t</w>
( N
cap ac
o '</w>
fre ed
organiz ation</w>
lo se</w>
differ ence</w>
ex trem
8 .
W el
happ ened</w>
distribu te</w>
fem al
in s
hom e,</w>
Un der</w>
Cong ress</w>
us e.</w>
ex plan
exper im
Y et</w>
B at
sugg ested</w>
dou ble</w>
W ood
f it</w>
exp ect
con sul
after wards</w>
so f
( D
issu e</w>
min e</w>
con taining</w>
s ought</w>
appro ach</w>
be ha
wif e,</w>
on a</w>
serv ing</w>
For ce</w>
that 's</w>
d i</w>
Or der</w>
sum m
ra in
in come</w>
bes ide</w>
scar cely</w>
s lo
" a</w>
ta ,</w>
swe et</w>
C er
organi zed</w>
head .</w>
.  
F C</w>
stor e</w>
artic le</w>
Dev elop
ha b
ment s.</w>
In f
ru le</w>
pa ir
R ic
S pe
aff ec
sti ll
acc ur
5 .
no ble</w>
tiv ely</w>
Ro ber
2 ,
A sh
as tic</w>
con s
At lan
ni ght.</w>
t es
an try</w>
D er
.org /
L iv
ben e
spe aking</w>
re comm
20 ,</w>
' ,</w>
o di
Am ong</w>
L atin</w>
power ful</w>
in side</w>
A ri
comp la
uni ties</w>
ig nor
4 9
tim es,</w>
201 5,</w>
ed )</w>
a im
res s
F le
ac tor</w>
st on
O h,</w>
go tt
S ul
S her
cre ate</w>
famil ies</w>
clo s
it es</w>
h en
Gre en</w>
200 8,</w>
YO U</w>
expres sion</w>
T our
6 .
stud ent</w>
for d,</w>
P u
r ough
the ory</w>
h ath</w>
Paci fic</w>
c ent</w>
res em
Bl ack
I C
er )</w>
fa ith
ir on</w>
We b
or y,</w>
r ated</w>
contrac t</w>
B ab
v a</w>
ation )</w>
immedi ate</w>
M edi
f ish</w>
" ;</w>
S .
S us
adv anced</w>
room .</w>
feat ure</w>
mid -
p s.</w>
c anc
mer ch
B es
Pol i
con flic
( in</w>
B ay</w>
ne g
Bi g</w>
( 194
P ho
E ll
200 2</w>
d u</w>
a k,</w>
ag ing</w>
lin e,</w>
Sci ence</w>
si an</w>
comp ly</w>
adv ent
1 4,</w>
li t</w>
uni on</w>
mo ther,</w>
Te am</w>
u el</w>
coun ty</w>
Civ il</w>
en de
t ext</w>
do ,</w>
wa iting</w>
ac ting</w>
es h</w>
qu ality</w>
C op
D ay</w>
m ass</w>
Con st
ro man
con vic
treat ment</w>
fac e.</w>
con clu
in tegr
campa ign</w>
auth ority</w>
pic ture</w>
Alex ander</w>
soci ety</w>
An ton
3 ),</w>
da ily</w>
m ic
Ar ts</w>
ec tive</w>
B ishop</w>
con clud
fav our
4 ),</w>
Wh y</w>
a :</w>
r oute</w>
tit ude</w>
rest ric
studi o</w>
a il</w>
iz e</w>
Mar g
U l
s ),</w>
y an</w>
cre ating</w>
app lied</w>
W ell,</w>
f estiv
ref used</w>
L ord
spe ed</w>
form at</w>
ur g
17 ,</w>
ne eded</w>
ex clu
d ers</w>
7 .
3 rd</w>
II I.</w>
ti le</w>
f ool
ou l
Gre en
him self.</w>
Prov inc
euten ant</w>
N et
201 8</w>
E ver
5 ),</w>
su peri
de part
m ale</w>
b ound
King dom</w>
S ome
tim ate</w>
M ol
h !</w>
W ith
Ser vice</w>
d edic
go al</w>
Le e</w>
u gg
M r</w>
prot ect</w>
small er</w>
eiv ed</w>
respon sible</w>
occur red</w>
agre ement,</w>
sch em
sit ting</w>
know ,</w>
Franc e,</w>
si vely</w>
bu ried</w>
oper ated</w>
eg g
main ly</w>
wat er
mor al</w>
H O
gen us</w>
in qu
ad es</w>
pleas ure</w>
charac ters</w>
de par
M P
im possible</w>
Sum mer</w>
cam p</w>
sid es</w>
nam e,</w>
pre p
6 ),</w>
ph as
ar rest
1 1,</w>
[ Footnote</w>
thre e-
expres sed</w>
gr at
si de
day s,</w>
Tex as</w>
comm only</w>
ol der</w>
as sa
D on</w>
F A</w>
20 0</w>
m ing
gr anted</w>
hi g
commis sion
Ire land</w>
res our
si e
min ute</w>
b li
num bers</w>
Ber n
pre mi
nor th
buil d</w>
em in
sud den</w>
ac tions</w>
d on</w>
ot a</w>
bo x
father 's</w>
est er
Youn g</w>
polic y</w>
death .</w>
and -
own ,</w>
t ac
star ting</w>
200 1</w>
on to</w>
T am
ri es</w>
war ,</w>
g al
as ser
Des pite</w>
v .</w>
' s,</w>
L am
201 6,</w>
b un
mon d</w>
0 -
y ard</w>
em ber,</w>
great ly</w>
P ak
om ,</w>
other s,</w>
A T</w>
ber .</w>
7 ),</w>
T emp
ven ue</w>
5 00</w>
he 's</w>
F air
her e
adop ted</w>
Cor n
8 ),</w>
le agu
f li
consi der</w>
boo k
distribu ted</w>
offic i
200 7,</w>
fiel d,</w>
un able</w>
B il
e ball</w>
G U
P ic
Bri g
tr a</w>
ag o,</w>
H ospit
aw are</w>
ab les</w>
sc ore</w>
S hor
co ast</w>
Jo e</w>
T ay
! '</w>
S av
ic k,</w>
o es</w>
dec or
vic tory</w>
Cor por
uni or</w>
Yor k,</w>
c ross</w>
d ated</w>
ra in</w>
Fre der
mist ak
O rig
L im
" and</w>
M an</w>
the ast</w>
form ,</w>
Sec retary</w>
ol d,</w>
recogni zed</w>
ma r</w>
Scot tish</w>
T enn
ab s
word s,</w>
aut om
pro pos
mi xed</w>
th ri
ed ."</w>
lic ens
em s</w>
o ffer
pro p
subsequ ently</w>
win ter</w>
sol ic
children ,</w>
c it
del ic
Jap an</w>
k ill</w>
La w</w>
ab b
al og
Pe ter
ograp hic
con om
y ers</w>
reg ist
thre w</w>
organ is
H ear
Resear ch</w>
cl es</w>
L ak
ham ,</w>
h i</w>
N .</w>
en i
sc ap
slow ly</w>
T ru
trou ble</w>
ur a</w>
pres sed</w>
Pro duc
we alth</w>
net work</w>
ta r</w>
car rying</w>
F ac
1 ]</w>
An dre
af f</w>
B la
cor por
M ul
hand .</w>
qu o
ed "</w>
au g
H ous
gi an</w>
4 :
Hol y</w>
histor y.</w>
uc le
dol lar
o st
ent ly,</w>
g n
flo or</w>
A z
con tain</w>
pleas ant</w>
cor ner</w>
od y</w>
qui et
oper ations</w>
p up
oc key</w>
spo ken</w>
On ly</w>
ar di
ex ac
Nav y</w>
ad o</w>
cap it
Arth ur</w>
c hampi
Direc tor</w>
wat er.</w>
C I
com fort
fre ely</w>
afra id</w>
B road
W i
ref und</w>
en o
le gi
h em
es tic</w>
" No
stand s</w>
" I
o il</w>
g ets</w>
H op
ar gu
comp uter</w>
Parliam ent</w>
S ,</w>
olog y,</w>
f ,</w>
E mp
dr am
e ".</w>
tor .</w>
as on</w>
anim al</w>
k o</w>
ev il</w>
um b
J im
be at</w>
be .</w>
Con stitu
Ar e</w>
en -
figh ting</w>
ach us
9 -
t ation</w>
Cha p
wall s</w>
v ation</w>
res s,</w>
sp ot</w>
W is
them atic
" An
e an</w>
K u
possi bly</w>
ar chi
A ,</w>
n al</w>
loc ation</w>
L or
ish ed,</w>
nar row</w>
S ever
construc ted</w>
t on.</w>
ac compani
phr ase</w>
volunte ers</w>
( B
K i
ac her</w>
re mov
L et
st ar</w>
step s</w>
Chic ago</w>
Th ough</w>
sur pris
In de
struc tion</w>
supp ly</w>
pro sp
C ity,</w>
dig n
R od
el phi
g rown</w>
M aster</w>
pl ans</w>
A k
Mic hig
u e,</w>
Man ag
e Book</w>
tre ated</w>
um p
pres ents</w>
Virgini a</w>
Com mon
bene ath</w>
1 3,</w>
nam e.</w>
Bu il
cl ou
comp ared</w>
rec k
ter -
ear ned</w>
all y.</w>
E conom
b ishop</w>
interest ing</w>
on "</w>
s inc
dis ci
wa it</w>
H ill</w>
piec es</w>
di am
f ted</w>
St ud
advant age</w>
b ass
sc ul
Educ ation</w>
Mass achus
d or
rul es</w>
s is
princ i
t ong
per ial</w>
m s,</w>
Chr ist</w>
escap e</w>
b os
-- "</w>
dri ve</w>
ol a</w>
un its</w>
et er</w>
att ached</w>
sec ure</w>
et te</w>
mem ory</w>
cou ple</w>
perfec tly</w>
Mid dle</w>
ext en
ag o
Wh ere</w>
ven tion</w>
exist ence</w>
b rown</w>
Il lin
conduc ted</w>
am ing</w>
paren ts</w>
P ur
cri tical</w>
t ari
H i
lad elphi
morn ing,</w>
accompani ed</w>
Tur k
201 7,</w>
high -
Su per
ut ter
rec over
compan ies</w>
_ The</w>
the y
K al
il ing</w>
fa ith</w>
T od
th rown</w>
f ain
f ought</w>
h ome
b ought</w>
vis ited</w>
l st</w>
pri mar
se e,</w>
H om
y ards</w>
9 ),</w>
l ac
J im</w>
larg ely</w>
bre ath
ech ni
se x</w>
long -
off ers</w>
refer ence</w>
E very</w>
receiv ing</w>
pl om
wat ch</w>
Wor ld
studi es</w>
r y.</w>
de partment</w>
d ry</w>
med ic
W ind
A D
Jes us</w>
K ir
w ished</w>
ll ed</w>
for d
<br ></w>
anti -
L ev
th od
olog y.</w>
cap tain</w>
ke y
chos en</w>
al leg
hi d
ha d
beaut y</w>
i on</w>
acc ept</w>
d ens
ch es,</w>
gr ound
4 th</w>
wr ong
si m
Con serv
m es</w>
m s.</w>
h es
Histor ic</w>
Illin o
hi ll</w>
pol it
exc e
inter rup
Spec ial</w>
deriv ed</w>
p ric
g en</w>
poss ession</w>
pp er</w>
F ig
mar ks</w>
vic tor
P ort
ad a</w>
des pite</w>
exc it
la ,</w>
our sel
Phi ladelphi
dec ision</w>
Comp an
I R
ay ed</w>
h ot
h all</w>
T ar
4 7
manag ement</w>
con ce
r out
U C
ad ver
yel low</w>
fav or
cle arly</w>
All -
ti fied</w>
el se
competi tion</w>
fr ag
hor ses</w>
Chi ld
ong st</w>
o ts</w>
loo ks</w>
es --
said :</w>
I V
sp ar
is es</w>
sen ior</w>
low ,</w>
C ON
politic ian</w>
reve aled</w>
grow th</w>
mi gh
T it
ure s,</w>
sp on
i us</w>
TI ON
6 5</w>
le d.</w>
c ous
Democr atic</w>
bur g</w>
re aching</w>
c o</w>
Pi er
s and
s ?</w>
thir ty</w>
sou th
P ow
em per
st aff</w>
fif th</w>
doub t
H an
ci ties</w>
anal ys
D et
Zeal and</w>
" That</w>
ent ary</w>
pro pri
histor ic</w>
re s,</w>
fre sh
F a
U k
ill a</w>
eng ine</w>
p oc
n er,</w>
j u
v ast</w>
cent uri
effec ts</w>
" In</w>
sk i</w>
m as</w>
( R
cas e,</w>
V is
9 0</w>
const ant</w>
fif ty</w>
voc als</w>
posi tions</w>
win dow</w>
U T
W AR
et y.</w>
es ",</w>
jud ge</w>
c oo
ol i
cre at
we igh
go ,</w>
w arm
now .</w>
200 6,</w>
D re
th an
sing er</w>
Or g
col labor
scienti fic</w>
increas ing</w>
C ,</w>
fir m</w>
stor ies</w>
ag ricul
gr as
Har ry</w>
V an</w>
M en
Ear l</w>
la p
form .</w>
him ;</w>
Bo b</w>
famil y.</w>
St ation</w>
at tered</w>
M ini
in s.</w>
r ati
youn ger</w>
vil le,</w>
spor ts</w>
ver th
rep li
fin ding</w>
W ell
bro ad</w>
occasi on</w>
R ock
y n</w>
ma xim
provid es</w>
connec tion</w>
auth ori
S om
min d,</w>
R id
"H ow</w>
men 's</w>
i .
L in
promin ent</w>
medi a</w>
G ro
H aw
fall en</w>
fir st,</w>
before ,</w>
con cent
war m</w>
v ig
J ul
wh er
ar ity</w>
incl u
W all
( 192
apparen tly</w>
E R</w>
L ater</w>
Val ley</w>
C el
head s</w>
inc ol
f .</w>
Rep resent
t es</w>
sp ite</w>
view s</w>
h os
cont ent</w>
qu anti
n ic
sus pic
se ts</w>
An ti
town ,</w>
rel ations</w>
School ,</w>
perm itted</w>
Mar y
s !</w>
per ,</w>
re duced</w>
I' d</w>
hus band
( and</w>
l ord
an "</w>
att ribu
e ffic
re ver
ma d</w>
p es</w>
m )</w>
ti li
conduc t</w>
sa fe</w>
con tained</w>
whi le,</w>
respon si
import ance</w>
doc tr
ti ves</w>
v ision</w>
C ir
spi red</w>
cat eg
ard s,</w>
' I</w>
ach .</w>
it s,</w>
or g</w>
Radi o</w>
id .</w>
conc ept</w>
W ill</w>
dri ven</w>
n est</w>
and a</w>
12 .</w>
l itt
we al
sc al
s ).</w>
m ass
J ust</w>
mus e
te enth</w>
4 8
k ers</w>
Div isi
famil y,</w>
char ged</w>
al "</w>
4 5</w>
ext ent</w>
Up on</w>
vol um
el s,</w>
anc es,</w>
Engl and.</w>
exac tly</w>
situ ation</w>
fil ms</w>
ation 's</w>
show ing</w>
beha vi
Care er.</w>
vol ume</w>
reg im
pass age</w>
tw ice</w>
scul p
G reg
b ab
distingu ished</w>
de ad
hom e.</w>
typ es</w>
" St
medi um</w>
photo graph
am m
off ,</w>
friend ,</w>
N a
bir ds</w>
Emper or</w>
H ay
retur ning</w>
excell ent</w>
philosop h
v in
ic s.</w>
M ir
bot tom</w>
for ,</w>
Elizabe th</w>
mach ine</w>
E L
Massachus et
go als</w>
won der</w>
gr ound,</w>
Cl ub
st ol
c ity,</w>
requ ire</w>
2 4,</w>
qui et</w>
ic s,</w>
19 th</w>
si z
star s</w>
c lock</w>
ar t,</w>
Sy d
ex tra
bran ch</w>
Pak ist
gr ac
H un
L incol
ac tual</w>
b b
pri or</w>
N ow,</w>
Marg are
Y .</w>
Franc is</w>
C i
“ I</w>
re search
ex tre
posi tion,</w>
on ;</w>
fig ures</w>
II ,</w>
Rev i
es hi
al ity,</w>
att le</w>
( A
ende av
Le w
tiv e,</w>
p in
D .
t ex
will ing</w>
law ,</w>
form ing</w>
g ate</w>
prov isi
mod er
Wom en's</w>
bur y</w>
str ugg
an xi
l iterary</w>
Pres s,</w>
individu als</w>
s es,</w>
ab ov
los ing</w>
id a
M ount</w>
O li
wom an,</w>
Colleg e,</w>
comm itted</w>
pro mp
retur n
En ter
poss essed</w>
o s,</w>
cul tiv
T ha
se ek</w>
R ac
k n
confir med</w>
B rown</w>
" _
el ements</w>
el d
O t
199 9</w>
O s
trans ferred</w>
destro yed</w>
g row</w>
pr on
elec tric</w>
v ar
in her
v ac
har mon
clas si
initi ally</w>
or n
( as</w>
Afric a</w>
Lon don
pre -
D A
man if
tr ust</w>
c en
tr ust
S P
though ts</w>
air ,</w>
P ubl
le y
D ol
mo re.</w>
wor n</w>
promis e</w>
" It's</w>
Feder al</w>
cha ir</w>
op h
2 :
tri um
ad s</w>
t echni
O ver
er o</w>
ed g
t our</w>
in a,</w>
A re
T ,</w>
beg ins</w>
A wards</w>
But ,</w>
industr y</w>
em erg
A ff
ug gl
Per haps</w>
ic .</w>
perman ent</w>
im ple
M .
clo sely</w>
tion ;</w>
amb igu
0 ),</w>
is m,</w>
intellec tual</w>
re por
Festiv al</w>
pow ers</w>
ec ting</w>
li qu
guit ar</w>
e at</w>
em br
we b</w>
lin e.</w>
ph en
li ght,</w>
manag er</w>
interest ed</w>
ad d</w>
eg et
H ill
la st,</w>
D an
D am
G lo
avo id</w>
h as
! ”</w>
ey es.</w>
op hi
slight ly</w>
exist ing</w>
k i</w>
th row</w>
gu ard</w>
B os
acc ept
ex ec
dem and</w>
cre w</w>
In depend
system s</w>
gra phi
dis eas
ap art
cap tured</w>
c ric
── ──
destro y</w>
dec isi
pres sure</w>
f at
hum an
1 1.</w>
rec ently</w>
sm oo
row s</w>
thu si
posi tive</w>
Pre mi
fac ed</w>
add ress</w>
d e,</w>
or y.</w>
that .</w>
p ack
K er
Alex and
s ound
rec ording</w>
un it</w>
Indi ans</w>
a f</w>
R et
spe ech</w>
P as
tou ch</w>
ation ;</w>
1 :</w>
par k</w>
t le</w>
20 th</w>
e _</w>
occasi on
Scot t</w>
terri ble</w>
ap ti
al a</w>
k ni
relation ship</w>
et c
meth ods</w>
n it
adv ance</w>
O k
c ity.</w>
ish ed.</w>
sec on
cast le</w>
th ings,</w>
Offic e</w>
under stood</w>
C z
t ap
inv est
as signed</w>
Is land
Bo ston</w>
min ister</w>
ly ;</w>
O w
di ff
tal king</w>
promis ed</w>
at es,</w>
re bel
Par is,</w>
4 6
An th
con sec
Al b
Sou th
L ove</w>
" I'm</w>
ri an</w>
r ag
em bar
call ing</w>
bur n
Sat ur
gr ams</w>
li ke
sen tim
W he
L ong</w>
p el
e ?"</w>
D al
record s</w>
prof essor</w>
ast on
co st
U L
are a.</w>
regi onal</w>
Comm un
S anta</w>
Augu st
ti e</w>
her e.</w>
set ting</w>
h in
f light</w>
dang er</w>
Y ear</w>
pp .</w>
draw ing</w>
d ru
" Project</w>
k en
t "</w>
football er</w>
" This</w>
enc oun
Pri me</w>
tri bu
hear t,</w>
Y ,</w>
purch ased</w>
albu m,</w>
quar ter</w>
st air
Com mission</w>
comb ined</w>
c ow
compet ed</w>
en ni
P le
gentle man</w>
ul ation</w>
st ock</w>
H ur
B ak
fir st-
M au
tr ack
v a
meas ure</w>
d ;</w>
ush ing</w>
ide as</w>
chest er</w>
si pp
do or,</w>
ri e</w>
199 8</w>
am ongst</w>
ri ch
Univers ity,</w>
pri ce</w>
es h
spe ech
M ore
Sup re
ris on</w>
min or</w>
foun der</w>
Assem bly</w>
z e
j ur
B ank</w>
migh ty</w>
in sul
s y</w>
y ",</w>
attemp ted</w>
ne eds</w>
or 's</w>
B ack
trac ks</w>
Mis sis
cap able</w>
gr and</w>
anim als</w>
disci pl
M EN
difficul ty</w>
wat ched</w>
ti fic
s en</w>
mar ine</w>
not able</w>
produc er</w>
per su
gr an
edi tions</w>
br inging</w>
for gott
est .</w>
201 8,</w>
repe ated</w>
lo y
promo ted</w>
Ar gent
co ff
wor e</w>
n ut
ne y,</w>
al ism</w>
ti vel
do es
W IT
conv inc
in ity</w>
cre ation</w>
en thusi
claim s</w>
back .</w>
e at
appro pri
ed --
K a
par liam
R aj
rep ut
5 9
leg isl
. org</w>
multi ple</w>
you ."</w>
( T
children .</w>
Phili p</w>
Bl ue</w>
fo rest</w>
"N o,</w>
comple x</w>
it s.</w>
p ure</w>
op posed</w>
F OR</w>
5 th</w>
sch ed
Ex ecu
M ast
col or</w>
H A
surr ounding</w>
wom en's</w>
t elling</w>
enti tled</w>
mo tion</w>
cros sed</w>
p ath</w>
Bec ause</w>
moun ted</w>
cre dit</w>
x ious</w>
Rail way</w>
is m.</w>
bod y,</w>
s _</w>
magaz ine</w>
situ ated</w>
St ra
Mi ke</w>
re y</w>
TH IS</w>
coun t</w>
hu ge</w>
fiel ds</w>
F al
i a.</w>
ha st
sec urity</w>
co ol
dr in
7 0
an a,</w>
call s</w>
w and
po et</w>
feat uring</w>
wor d,</w>
Found ation,</w>
is e,</w>
Record s</w>
mat ters</w>
Dani el</w>
cor rup
ha ir
dedic ated</w>
wid ely</w>
b and,</w>
p ical</w>
ist .</w>
boo k,</w>
Y ear
li brary</w>
posi tion.</w>
ever .</w>
Col lec
re port
gra v
extrem ely</w>
ter y</w>
adm itted</w>
um ber
- b
con sol
Wal ter</w>
w ere,</w>
ti ed</w>
municip ality</w>
d al
( with</w>
Isra el
road ,</w>
att end
H ind
equ ally</w>
sc ious</w>
201 0.</w>
fin ds</w>
arti sts</w>
d ance</w>
Li brary</w>
ra ise</w>
D ay
bel ow.</w>
gradu ated</w>
m it
psy ch
L au
Olymp ic</w>
On ce</w>
do .</w>
B ob
M ain
ta il</w>
G ood
per ha
fr anc
bir d</w>
other wise</w>
artic les</w>
ren dered</w>
gra ve</w>
tra vel</w>
n on</w>
J ones</w>
ish op
K enn
Republic an</w>
et c.</w>
C ros
primar ily</w>
hon our</w>
Ne ther
isc o</w>
an ni
not es</w>
vol .</w>
tem porary</w>
cul tural</w>
mom ent,</w>
arrang ed</w>
aw ard</w>
fri ght
pain t
n e,</w>
imag in
C av
w ick
f are</w>
in em
yal ty</w>
par ish</w>
rel ation</w>
: --</w>
sha red</w>
Missis sipp
bri lli
capac ity</w>
iv al
un n
C ard
sub m
re ds</w>
Pol ish</w>
st on,</w>
P lat
  m
17 6
in i</w>
che str
exclaim ed</w>
all -
wou ldn't</w>
hon or</w>
Th en,</w>
wonder ful</w>
he at</w>
uck y</w>
M ore</w>
jour ney</w>
entr ance</w>
F ather</w>
unc tion</w>
Un der
in spired</w>
w .</w>
Willi am
Tay l
a str
l ess,</w>
grad ually</w>
( a</w>
f iv
S ab
flow ers</w>
suffic i
sen si
whi lst</w>
go ti
om et
thor ough
C ub
exc ep
settle ment</w>
Ad di
R oo
c y</w>
2 1,</w>
w ood,</w>
t um
bri ef</w>
Mar t
m and
con scious</w>
G ord
E P
dis p
org an</w>
hy dro
mos ph
con serv
F L</w>
2 ]</w>
S ocial</w>
Ch ris</w>
are r</w>
se -
distinc t</w>
L e</w>
Sa x
do or
C .
ple ased</w>
An drew</w>
issu es</w>
om ed</w>
Ad ministr
em eter
f ly</w>
ques tions</w>
3 5</w>
par tly</w>
su m</w>
re jec
Ge org
dom estic</w>
newspap er</w>
Th ose</w>
Sh ar
ad ron</w>
c es.</w>
Supre me</w>
bir th</w>
y st
199 6</w>
row ,</w>
C ab
T own</w>
fi re,</w>
rema in
surr ounded</w>
2 5,</w>
str uggl
WIT H</w>
l un
head ed</w>
regist ered</w>
d read
vo y
sle ep</w>
r are</w>
5 %</w>
curi ous</w>
um p</w>
tic ,</w>
K ent
St or
An der
R oute</w>
V I
b la
enc e
kno c
ans as</w>
200 5,</w>
w ed
un known</w>
par ties</w>
s /
B .
gather ed</w>
He alth</w>
ris k</w>
Mar ia</w>
L ong
cou ldn't</w>
y le</w>
religi on</w>
4 4
( c
bodi es</w>
il y,</w>
is n't</w>
is m
B ou
fac es</w>
on e's</w>
pain ted</w>
care fully</w>
t one</w>
Mil itary</w>
et s,</w>
design ated</w>
do g</w>
k 's</w>
Franc e.</w>
201 1.</w>
P on
end .</w>
in es,</w>
expla ined</w>
comp re
l on
al ing</w>
Mal ay
spirit ual</w>
attac ked</w>
prog ress</w>
B ang
pla in
A L</w>
200 9.</w>
ó n</w>
John son</w>
Con ference</w>
K el
cho ose</w>
obli ged</w>
be aring</w>
j a</w>
sha d
M ov
bas is</w>
laugh ed</w>
lin ks</w>
so ft
Sta r</w>
tre at</w>
sh ore</w>
broad cast</w>
remark able</w>
tic ally</w>
b low
v eget
im age</w>
p gla
A ra
ain .</w>
administr ative</w>
for get</w>
circumst ances</w>
Ital y</w>
b ar</w>
St and
B ay
St eve</w>
o k</w>
gard en</w>
ul ty</w>
cl er
to .</w>
Ham il
famili ar</w>
crow d</w>
A ut
um in
gol den</w>
inv ited</w>
sh ut</w>
bri ef
L E</w>
put ting</w>
n ucle
know ing</w>
TE D</w>
ri d</w>
Ser ies</w>
2 2,</w>
el le</w>
you 're</w>
si gh
plan ned</w>
li ps</w>
aff ected</w>
ous ness</w>
3 0,</w>
S E</w>
Distric t,</w>
el ess,</w>
ri ce</w>
br on
F O
hun g</w>
vir tu
s at
tit led</w>
S O
o ke</w>
en ever</w>
dist ant</w>
her o
e h
Nic hol
prov ince</w>
cl am
plan ts</w>
Sen ate</w>
met al</w>
jo y</w>
s a</w>
offic ially</w>
serv es</w>
201 2.</w>
M un
te aching</w>
V an
' S</w>
S on
reg arding</w>
Champion ships</w>
" but</w>
chec k</w>
be st
sol em
su it</w>
199 7</w>
mis sed</w>
k is
mar ry</w>
-- --</w>
sha pe</w>
down .</w>
or a</w>
counc il</w>
k ing.</w>
ric al</w>
fa i
replac ement</w>
di plom
basket ball</w>
b ell
re r</w>
Me an
( L
war .</w>
on er</w>
th ick</w>
incorpor ated</w>
ure s.</w>
Pennsylv ania</w>
Steph en</w>
G H
S in
he ight</w>
A h
g as</w>
execu tive</w>
er s'</w>
wh ere,</w>
um "</w>
sh ook</w>
urb an</w>
ul ated</w>
prog res
Sever al</w>
sil ent</w>
s anc
b ed,</w>
st ations</w>
inter pre
defe at</w>
d ress</w>
de v
2 8,</w>
h arm
li br
Mexic o</w>
chall eng
E l</w>
el y.</w>
si a</w>
row ing</w>
m on</w>
com e,</w>
pgla f
be at
toge ther.</w>
app reci
ar i</w>
per s</w>
vo te</w>
est er</w>
a ".</w>
www. gutenberg
estim ated</w>
prof it</w>
H il
2 :</w>
( dis
before .</w>
Se a</w>
P ra
J EC
M AR
hes it
e able</w>
Je an</w>
ed -
tri al</w>
-- that</w>
S ud
ul a</w>
ver e
exp ect</w>
in sist
bro ther,</w>
p he
Jus tice</w>
ing ."</w>
Le on
re present</w>
le an
. com</w>
tur n
Cre ek</w>
Christ mas</w>
lo s</w>
will ,</w>
ch annel</w>
200 8.</w>
anc ing</w>
G ran
G ul
school ,</w>
elec tric
fl ying</w>
fl ag
lead ers</w>
prac tical</w>
On tari
along side</w>
k er,</w>
ra ,</w>
year -
N az
is lat
re lat
say s,</w>
prot ection</w>
st a
att ack
Pol ice</w>
Cap e</w>
t ear
D ur
" There</w>
k ins</w>
ques tion
ag ent</w>
jo ining</w>
ation "</w>
on 't</w>
rapid ly</w>
ad e,</w>
( 16
gr ati
se ized</w>
re view</w>
2 3,</w>
room s</w>
assist ance</w>
O l
re fu
Mad ame</w>
la in</w>
200 7.</w>
Br un
recog n
respon se</w>
N el
g li
pres ent,</w>
hand s,</w>
deliver ed</w>
remember ed</w>
hol y</w>
fol k</w>
Angel es</w>
si mul
fac ts</w>
w ants</w>
Vol .</w>
peculi ar</w>
f ts</w>
Franc isco</w>
in 's</w>
exp an
p ac
B ru
an other,</w>
ren amed</w>
S A
bor der</w>
ren der</w>
day s.</w>
ur ,</w>
ab sor
we en</w>
N ar
P ot
Y es,</w>
four -
Brit ain</w>
ext ensive</w>
me ."</w>
house hold</w>
wr ong</w>
R al
friend ly</w>
K r
Sun day</w>
9 .
ex ha
system .</w>
201 3.</w>
sym pa
c ard</w>
ple ase</w>
gr ade</w>
' .</w>
Br ad
ap prov
H ome</w>
fir m
at mosph
b omb
con dem
B lo
we ather</w>
a rest</w>
Chur ch,</w>
E di
consist ed</w>
17 5
ca uses</w>
tain ment</w>
C ross</w>
oper ating</w>
Person al</w>
Mini stry</w>
stor m</w>
enc es,</w>
law .</w>
ti al</w>
tournam ent</w>
pa ying</w>
univers ity</w>
men tion</w>
Develop ment</w>
adi um</w>
sugg es
inter view</w>
mic ro
Gol den</w>
_ ;</w>
w a</w>
ther e's</w>
1 :
chi ld,</w>
shar p</w>
N apol
I ’
natur ally</w>
comp u
2 7,</w>
subsequ ent</w>
ab or
own .</w>
th ick
ep tion.</w>
che er
objec ts</w>
stat ement</w>
ch er
en ge</w>
edit or</w>
O ver</w>
Res er
un k</w>
activ ity</w>
M O
Mag az
tur ing</w>
dam age</w>
ang el
eng ag
cul ture</w>
I sa
thous ands</w>
inhabit ants</w>
th a</w>
lear ning</w>
ch -
an xious</w>
el im
R ad
no t.</w>
evid ently</w>
medi an</w>
ut ely</w>
ure ly</w>
adv oc
2 6,</w>
p t</w>
l '
spec im
la ke</w>
Wash ington,</w>
pass es</w>
arri val</w>
func tion</w>
po ver
co very</w>
d s.</w>
do zen</w>
d 's</w>
com e.</w>
proble m</w>
old est</w>
dep ic
Vi et
al ity.</w>
Al f
am bi
JEC T</w>
H ong</w>
L ind
youn g
D O
S ong
Execu tive</w>
ent ry</w>
ran g</w>
mat ches</w>
( which</w>
k "</w>
mov ie</w>
1 4.</w>
201 4.</w>
am p</w>
Bud d
educ ational</w>
H amp
or ous</w>
Coun t</w>
S la
Dou gl
pro te
p ale</w>
NB ER
S pain</w>
we ar</w>
e ous</w>
activi ties</w>
dro p</w>
" :</w>
Li eutenant</w>
ma ,</w>
though t,</w>
Florid a</w>
w ag
town .</w>
ste ad
ti er</w>
sir ,</w>
fall ing</w>
assist ant</w>
19 .</w>
1 3.</w>
g a</w>
TE NBER
i an,</w>
comm od
ali ties</w>
house hol
th 's</w>
" that</w>
exp ens
ne goti
identi fied</w>
sever e</w>
ow ing</w>
L ine</w>
ma id
Med ical</w>
GU TENBER
en z
fif teen</w>
per form</w>
initi al</w>
jus tice</w>
te am.</w>
our .</w>
G ood</w>
allow s</w>
nor th-
W y
i an
Stre et,</w>
G ames</w>
defin ed</w>
ad or</w>
s low</w>
Sid eno
Pla y
"D o</w>
W ill
shor tly</w>
sc ale</w>
ri de</w>
== ==
poc ket
ful .</w>
H ard
15 .</w>
3 ,
op position</w>
est ate</w>
Ath le
w ounded</w>
3 2</w>
ro p
Atlan tic</w>
qu ick</w>
f ill</w>
a ren
(dis ambigu
L is
[ Sideno
Fr on
gun s</w>
ter r
r ural</w>
c and
ab und
We b</w>
iz ation</w>
Willi ams</w>
nor mal</w>
li p
c ry</w>
expres s</w>
ir ing</w>
em an</w>
bu y</w>
k h
le ts</w>
princip le</w>
collec ted</w>
attemp ts</w>
w s</w>
sex ual</w>
Ad mir
fal se</w>
O ri
c loc
e b
tra in
sac red</w>
A v
prot ected</w>
sig ns</w>
convers ation</w>
Americ a,</w>
C hampi
pow er,</w>
9 0
R ang
ti a</w>
broad cast
us er</w>
resul ted</w>
sem i-
B BC</w>
in ner</w>
a h,</w>
ous ly,</w>
j i</w>
em ,</w>
O ce
notic ed</w>
R ome</w>
G ab
p ages</w>
k in</w>
be y</w>
Gre ec
w inter
ish .</w>
Swed ish</w>
enc ies</w>
b an</w>
them ;</w>
s es.</w>
celebr ated</w>
et ary</w>
ra m</w>
Col or
pat ri
in formed</w>
L angu
ward s,</w>
al li
comm ittee</w>
Portu gu
w an
disc over</w>
happ en
Con feder
" In
Hav ing</w>
Not able</w>
devo ted</w>
roll ed</w>
freed om</w>
Is lam
er able</w>
b ell</w>
intro duc
199 5</w>
R ay
O r</w>
maxim um</w>
an tic
ev il
so vere
199 4</w>
o z
Wal es</w>
" --
" Al
tou ch
wal king</w>
Emp ire</w>
hund reds</w>
lo ve,</w>
[Sideno te:</w>
ath le
H im
co ast
post -
s light</w>
hear ing</w>
199 2</w>
ul ts</w>
bre aking</w>
proble ms</w>
man n</w>
us eful</w>
determin e</w>
valu able</w>
1 %</w>
bor ne</w>
dro ve</w>
gener ation</w>
wat ching</w>
contem porary</w>
hear t
ste am
de :</w>
val ley</w>
X I
n es</w>
as sumed</w>
201 5.</w>
G os
continu es</w>
descrip tion</w>
town s</w>
e z</w>
Cent re</w>
to- mor
F our</w>
d well
st ric
cho ice</w>
pre vent
new ly</w>
gradu ate</w>
j am
near by</w>
ard s.</w>
it e,</w>
class es</w>
en "</w>
i x
anc e
beli ef</w>
ful l-
allow ing</w>
igh ts</w>
hand ed</w>
ograp hi
your self</w>
interest s</w>
PRO JECT</w>
2 9,</w>
ne .</w>
b ass</w>
ar y
at ely,</w>
dg e.</w>
jo b</w>
under standing</w>
dr ama</w>
X V
int end
sh ore
re pl
8 0</w>
applic ation</w>
ob vi
pic ally</w>
doc tor</w>
pul led</w>
pris on</w>
K il
C D</w>
ha w
Al so</w>
in fin
D IS
fair ly</w>
Ar ti
id es,</w>
sk in</w>
on y
at s,</w>
em phas
W as</w>
second ary</w>
o ch
dis sol
Russi a</w>
med al</w>
under stand
re min
particip ated</w>
d ged</w>
5 7
P il
att end</w>
pre dic
produc t</w>
vic tim
se es</w>
wat ers</w>
200 1,</w>
ti ble</w>
h r
don e,</w>
pic ked</w>
l ers</w>
mom ent
sk i
Cor ps</w>
bor e</w>
Christi an
pri vil
temp le</w>
coun ter
stri ke</w>
em er
ter n</w>
success fully</w>
W ay
sil ence</w>
citiz ens</w>
w er
( F
main tained</w>
appe are
in sur
ab led</w>
ec ts</w>
ra v
Bet ween</w>
K ur
S pi
of -
ma thematic
Bi ography.</w>
" All</w>
Comm unity</w>
th in</w>
t ask</w>
cop y,</w>
tr ag
K at
proce eded</w>
devel op</w>
t i</w>
pro hi
le ;</w>
resul ting</w>
Lond on.</w>
P un
t ren
Pop e</w>
appear ing</w>
fin ish</w>
ul ed</w>
dre am
au ,</w>
tw are</w>
re gre
con su
pro of</w>
it age</w>
for ty</w>
ig i
dang erous</w>
read ,</w>
fort une</w>
wood en</w>
cat ch</w>
orig in</w>
t all</w>
re move</w>
Maj est
- in-
ri ght.</w>
Carol ina</w>
t e,</w>
di r
I ra
it ch</w>
possi ble,</w>
f anc
c ris
' t
el a</w>
tim ately</w>
op pon
fl at</w>
ash ing</w>
ev ed</w>
w ine</w>
pro grams</w>
Reg ister</w>
Fore ign</w>
co sts</w>
govern or</w>
st aff
1 ).</w>
or al</w>
Al ber
Cha ir
strong ly</w>
Fur ther</w>
de -
( 190
app ly</w>
sc op
6 th</w>
5 00
Con nec
K am
j i
p ool</w>
sup pos
sing ing</w>
Theat re</w>
sh r
B e</w>
bl u
earli est</w>
produc ts</w>
lear n
ex change</w>
academ ic</w>
par t,</w>
WAR RAN
ach el
v ul
P ort</w>
min im
does n't</w>
it or</w>
ent y</w>
ex pl
ou d
extre me</w>
str at
friend s,</w>
nat ure,</w>
saf ety</w>
li ked</w>
sa ved</w>
ves sel</w>
was n't</w>
fe et,</w>
pi an
l ord</w>
te acher</w>
E X
experi enced</w>
200 4,</w>
fi es</w>
Al bu
c ep
tion ally</w>
L anc
deta ils</w>
ner v
V E</w>
bo w</w>
re ports</w>
us al
command ed</w>
d il
bur st</w>
tor al</w>
Tr ack</w>
Sam uel</w>
le "</w>
system ,</w>
Sup er</w>
. com
ol s</w>
candid ate</w>
liter ature</w>
inv asi
T Y</w>
low -
tra ined</w>
Co ast</w>
sym bol
ro de</w>
ch es.</w>
equip ment</w>
ran ked</w>
lif ted</w>
ro polit
R and
el ed</w>
g le
ab ol
w rest
ess es</w>
establ ish</w>
m ill
princi ples</w>
ex emp
F u
n ’t</w>
aff ili
16 .</w>
afterno on</w>
represent ing</w>
N ig
fi x
stre ets</w>
smil e</w>
hospit al</w>
perha ps,</w>
ari a</w>
ounc ed</w>
Op en</w>
indic ate</w>
phen om
wom en,</w>
su stain
ell .</w>
t ears</w>
fle et</w>
s ending</w>
c a</w>
aff air
m ap
Mexic an</w>
Napol e
al ty</w>
conver ted</w>
o x</w>
un fortun
tou ched</w>
jud ic
Min nes
B y
, [
2 %</w>
B ad
b ill</w>
ta k
be gun</w>
ap proved</w>
occasion ally</w>
ha d,</w>
S our
e u</w>
Univers ity.</w>
Christ op
il ian</w>
du ties</w>
partic ul
In d
Tim e</w>
sacri fic
associ ation</w>
acquain t
il y.</w>
f low</w>
at om
mar g
l o</w>
E st
C D
fin ed</w>
al one,</w>
over all</w>
Ox ford</w>
200 0,</w>
pap ers</w>
Th us,</w>
King dom
Bl u
Asi an</w>
w n</w>
L an
fall s</w>
l er,</w>
200 6.</w>
produc ing</w>
ann a</w>
pr int</w>
( 18
industri al</w>
tur ns</w>
(disambigu ation)</w>
voic e,</w>
am i</w>
superi or</w>
se a,</w>
are .</w>
ty pically</w>
3 ]</w>
or nam
tic s.</w>
r hy
a head</w>
Mat the
T op</w>
l it
Turk ish</w>
fac il
War .</w>
T V
C E</w>
O .</w>
Al bert</w>
the tic</w>
r um
u ous</w>
lead s</w>
le y.</w>
Pro test
it self,</w>
cha e
suffer ing</w>
B en</w>
ac knowle
Ohi o</w>
Med ic
( I
spl en
ne gl
Doc tor</w>
seri es,</w>
ward .</w>
main tain</w>
201 6.</w>
din ner</w>
administr ation</w>
strugg le</w>
es ".</w>
Th rough</w>
20 .</w>
ff ic</w>
w ra
Bus iness</w>
ri v
k itch
w ings</w>
ton 's</w>
gi c</w>
C B
own s</w>
be ar
é e</w>
moun tains</w>
effec tive</w>
ro ll</w>
r ation</w>
all s</w>
gr ace</w>
c ell</w>
follow s</w>
des per
t ing
L yn
heav ily</w>
w ant
aff airs</w>
co ,</w>
wa it
Isra el</w>
enn is</w>
establ ishment</w>
V il
scrip tion</w>
dis gu
territ ory</w>
er :</w>
under st
d ge
histor y,</w>
in ts</w>
B ill
Q U
C -
feel ings</w>
good -
am oun
G old
win ner</w>
u d</w>
ch ann
5 5
Americ a.</w>
ph y
inst ance,</w>
C )</w>
3 :</w>
lo ad</w>
l as
speci fic
der ing</w>
period ,</w>
Freder ick</w>
C u
e k,</w>
ess ing</w>
L ad
e ing</w>
ep ing</w>
div ine</w>
appear ances</w>
R ap
cri me</w>
sc attered</w>
inst inc
adv is
far m</w>
sel ling</w>
fi red</w>
F ul
desi red</w>
igh t,</w>
199 1</w>
Tenn es
separ ated</w>
oc rac
ment ary</w>
h an
sou th-
Ed in
Com mission
( b.</w>
199 3</w>
off .</w>
sh op</w>
d are</w>
p ig
subst anti
ha z
re s.</w>
you ?"</w>
Colum bia</w>
b id</w>
inter nal</w>
N or</w>
act ress</w>
2 ).</w>
wh enever</w>
dres sed</w>
require ments</w>
expla in</w>
Har v
you 'll</w>
nomin ated</w>
bo y,</w>
pe ac
qu es</w>
h at</w>
star ring</w>
dr ag
S em
b ,</w>
R ock</w>
in fer
ey ed</w>
ne u
3 %</w>
Don 't</w>
ri ver,</w>
Hous e,</w>
A -
p ag
-- _
al so,</w>
no ,</w>
bur ning</w>
road s</w>
col our</w>
enti ty</w>
C lin
us crip
az z</w>
Indi a.</w>
stat e,</w>
b a</w>
si e</w>
consist ing</w>
anc es.</w>
gu id
ic e.</w>
mur der</w>
"Y ou
do or.</w>
tal ked</w>
elec tion,</w>
us ed,</w>
Par t</w>
a e
S am</w>
f le</w>
lad ies</w>
yn ast
Gutenberg "</w>
aband oned</w>
foc us</w>
] ,</w>
Europ e,</w>
comp il
am e
ch ron
six th</w>
g ood,</w>
gam e,</w>
accord ance</w>
Wat er
reli ef</w>
ev al</w>
ra il</w>
on ym
Sain t-
Li fe
 k m</w>
sk ir
e y.</w>
am i
pr oud</w>
visi ble</w>
phys ic
land s,</w>
tran si
champion ship</w>
Em pi
uni que</w>
authori ties</w>
educ ated</w>
ex trac
" Ch
II I
tro op
T ak
chur ch,</w>
ho sted</w>
Rev .</w>
j e
land scap
a _,</w>
re ar</w>
me ;</w>
it y;</w>
D V
rest aur
pot ential</w>
d ul
gu est</w>
al y
satis fied</w>
( K
,00 0
T R
al ists</w>
ban ks</w>
' "</w>
Nor we
on ce,</w>
h an</w>
it ?"</w>
hor iz
seas ons</w>
om .</w>
17 .</w>
z ation</w>
dri ving</w>
Sy stem
g ing</w>
D ig
re l</w>
dem anded</w>
over .</w>
S -
( 189
ce ased</w>
conclud ed</w>
a ud
R y
9 9
lo ose</w>
comp on
Princ ess</w>
abs ence</w>
b ent</w>
defin i
"D on't</w>
mid st</w>
Victor ia</w>
G old</w>
m igr
hid den</w>
const antly</w>
wor se</w>
ution ary</w>
tim es.</w>
G or
Jer usal
bur n</w>
en or
servic e.</w>
pra y
g as
oc k,</w>
some one</w>
dig ital</w>
shi re,</w>
meth od
enn y</w>
sti r
confid ence</w>
in ch</w>
sa d</w>
sp lit</w>
mess age</w>
Edin bur
W ar,</w>
3 6</w>
intro duction</w>
bro thers</w>
am az
k illing</w>
Scot land</w>
s es
pri est</w>
S H
en se.</w>
" Not</w>
mother 's</w>
os si
min d.</w>
Engl and
Pro t
18 .</w>
M unicip
T ony</w>
199 0</w>
rap id</w>
subjec ts</w>
of .</w>
gam e.</w>
7 0</w>
bes ides</w>
j ob
lu x
re duc
sol o</w>
7 th</w>
ly ric
O reg
pl ant
ous ly.</w>
P A
school .</w>
writ ers</w>
o o</w>
M es
sent ence</w>
S S</w>
th is.</w>
e ks</w>
a ked</w>
jo int</w>
Sy m
necess arily</w>
equ ival
promo tion</w>
bri g
addres sed</w>
1 ;</w>
a y.</w>
Pr us
Thi rd</w>
absol utely</w>
L es
Kore an</w>
scen es</w>
ropolit an</w>
con ference</w>
King 's</w>
ch ose</w>
Ex c
Au th
mo bil
lin k</w>
we ak</w>
Bor n</w>
employe es</w>
( ,</w>
occ ur</w>
Fi eld</w>
tain ,</w>
ac k,</w>
le v
B un
adver tis
fashi on</w>
i red</w>
Bi bli
" Then</w>
enjo yed</w>
co at</w>
e tic</w>
arrest ed</w>
5 6
5 8
Batt ali
ho st
ob lig
wind ows</w>
frequ ent</w>
R on
Ri ver
God 's</w>
s now
dr ink</w>
extra ordinary</w>
P om
S ig
est ing</w>
Californi a,</w>
em ed</w>
surpr ised</w>
cle an</w>
applic able</w>
N o,</w>
whol ly</w>
mon ey,</w>
L t
al ter
guit ar
b on</w>
Fig .</w>
T ai
bo ats</w>
Ar k
- up</w>
meas ures</w>
ro of</w>
performan ces</w>
"L a</w>
s ._</w>
N ik
Cl ass</w>
ste el</w>
comp li
TE R
e !"</w>
t ing,</w>
---- "</w>
occur s</w>
T ok
eBoo ks</w>
h oo
e ),</w>
tend er</w>
achiev ed</w>
re m
el s.</w>
com mer
viol ent</w>
fru it</w>
re mo
fl ed</w>
German y,</w>
oursel ves</w>
ent ering</w>
Mus li
U K
[ _
H and
ti ous</w>
" De
contribu ted</w>
arm s,</w>
dens ity</w>
re new
Un cle</w>
pla y,</w>
dis play
An ne</w>
deli ght
la u
ou ter</w>
resid ents</w>
Bri an</w>
E u
Con tin
it ,"</w>
st ayed</w>
T un
est e
desc end
gl ance</w>
pay ments</w>
se g
( G
3 3</w>
ar ts</w>
gir l,</w>
201 7.</w>
im men
Po st
N um
d ur
IN G
no d
H ave</w>
exp anded</w>
tow er</w>
belong ing</w>
Margare t</w>
% )</w>
countr y
daugh ter,</w>
Jew s</w>
bran ches</w>
sp ac
re viv
Th ere
. _,</w>
T ol
reas ons</w>
t able,</w>
D ick</w>
200 3,</w>
Im perial</w>
T ig
gr ass</w>
i g</w>
p lo
arti ll
dis ease</w>
cir cul
ain 't</w>
ha bit</w>
pain ting</w>
el 's</w>
Bro ok
hol e</w>
S ports</w>
dis h</w>
pol y
ta il
e ast
road .</w>
Bel gi
sol id</w>
J unior</w>
3 ).</w>
H ad</w>
ol e</w>
respec tivel
v it
Premi er</w>
Que ens
B ure
poin t,</w>
analys is</w>
col l
X .</w>
ob taining</w>
ri ver
al ;</w>
cor e</w>
tro pical</w>
comp liance</w>
benef it</w>
ve hi
" U
t os
5 ).</w>
B I
M ember</w>
z .</w>
work ers</w>
r ound
Ar n
fav our</w>
inten tion</w>
inst ant</w>
appoint ment</w>
re ign</w>
a w</w>
prep are</w>
Li br
represent ative</w>
der s,</w>
3 00</w>
Air port</w>
a _</w>
Rog er</w>
techn ology</w>
car s</w>
com o
quali fied</w>
4 :</w>
at es.</w>
anal y
pas sion
ell er</w>
S ac
ca us
Moun tain</w>
Gr and
Jack son</w>
ic ked</w>
An d,</w>
tru ly</w>
Michig an</w>
ist s,</w>
Anth ony</w>
is ol
w ret
addi tion,</w>
vessel s</w>
compan y,</w>
perc ent</w>
attac ks</w>
transl ated</w>
cover ing</w>
refer ences</w>
an te
n ations</w>
charac ter,</w>
D y
mid d
( E
s ick</w>
dec lar
inter ior</w>
wi fe
in es.</w>
New s</w>
fiel d.</w>
commission ed</w>
rel atively</w>
f ran
sign al</w>
rec ru
deep ly</w>
hous ing</w>
themsel ves,</w>
swe et
c ode</w>
govern ment,</w>
g oods</w>
Wil son</w>
sour ces</w>
re place</w>
Reg iment</w>
St ew
p ushed</w>
la y
im prison
Sw itz
ut ,</w>
p ha
] .</w>
n ice</w>
dis play</w>
Yor k.</w>
g e,</w>
communic ation</w>
cover s</w>
as king</w>
ve hic
requ est</w>
al together</w>
chang ing</w>
found ation</w>
m ac
el ement
en ;</w>
" They</w>
sha ped</w>
possi ble.</w>
hop ed</w>
sp end</w>
liter at
Ep is
intellig ence</w>
ef ,</w>
i ve</w>
requi res</w>
exhi b
Sim on</w>
Hum an</w>
wom an
acc es
( H
P ress</w>
materi als</w>
B ran
Don ald</w>
per pet
ro g
plat form</w>
col leg
sor ry</w>
ess ential</w>
escap ed</w>
cav al
dg es</w>
bus y</w>
consequ ence</w>
part ner
F our
b ig
200 5.</w>
li ghts</w>
T ow
Comm and
u ary,</w>
_ )</w>
Bar bar
wa ve</w>
198 8</w>
imple ment
( The</w>
pro ph
J r.</w>
Li ve</w>
d ut
ship s.</w>
V ari
( now</w>
d en,</w>
t as
J ord
ti red</w>
cour age</w>
http://www. gutenberg
resol ved</w>
4 %</w>
P age</w>
cl erg
Fam ily</w>
Poli tical</w>
ti ly</w>
c up</w>
reti re
ho tel</w>
Lew is</w>
ag o.</w>
influ enced</w>
Pl an
de vic
go .</w>
war ri
tru e,</w>
6 ).</w>
preser ved</w>
any where</w>
as ide</w>
A N</w>
Bo y
in et</w>
n ick
Jan e</w>
B all
so il</w>
A l</w>
surpr ise</w>
Ar men
o e</w>
x x
V inc
Mem orial</w>
con fu
au gh
M e</w>
ac commod
enjo y</w>
Coun try</w>
mag nific
- based</w>
lo ,</w>
u .</w>
Switz er
hear t.</w>
belong ed</w>
do ors</w>
fi re.</w>
rel ative</w>
G O
y ?</w>
elim in
Vi enn
tru th,</w>
ra ising</w>
exerc ise</w>
fav or</w>
Ma in</w>
govern ment.</w>
Peop le</w>
arti st
impres sion</w>
de ar
de pos
res s.</w>
explan ation</w>
sk et
ref ers</w>
4 ).</w>
wh en,</w>
su rely</w>
deli ber
di men
ang er</w>
AN Y</w>
wind ow
le :</w>
ad or
Min ist
D ick
s wi
R un
bri ght
ly -
f ice</w>
r ant</w>
C L
at -
ro t
ed ral</w>
in ches</w>
bra in</w>
trademar k</w>
el ing</w>
parag raph
in spir
v ed,</w>
Pri ze</w>
av i
wor st</w>
command er</w>
P H
res c
T O
gent le</w>
lab or</w>
hon est</w>
form al</w>
Ar c
olog ist</w>
Bul g
A dam</w>
thin ks</w>
y !</w>
Americ ans</w>
year- old</w>
perform ing</w>
3 4</w>
ph y</w>
necess ity</w>
di ag
198 9</w>
B -
He ad</w>
P ed
lin ,</w>
inclu de:</w>
a qu
ic an</w>
C ru
bir th
In don
vill ages</w>
enti ally</w>
5 :
Mod ern</w>
n i</w>
P ower</w>
thin k,</w>
n om
step ped</w>
m ud
s ?"</w>
b om
s ar
fr ame</w>
ce as
Ever y
J .
wa ited</w>
p ist
Br on
ri a</w>
wat ch
st atis
V E
nav al</w>
W rit
ear th,</w>
as pec
sc oring</w>
ff al
contribu tions</w>
; "</w>
it ?</w>
music ,</w>
leg s</w>
ni c</w>
preser ve</w>
at or,</w>
proce ed
c od
w ound
promo ting</w>
7 ).</w>
ste in</w>
j eal
character is
er t</w>
ex ist</w>
dis covery</w>
an n</w>
Ma h
al 's</w>
5 :</w>
T our</w>
descri bes</w>
tra ffic</w>
l ing,</w>
quar ter
bod y.</w>
pe as
y ".</w>
Ari z
Cast le</w>
reason able</w>
se ated</w>
min d
er ies</w>
stat e.</w>
pro file</w>
um s</w>
Australi a.</w>
Qu ar
Par k,</w>
P L
Hospit al</w>
ab o
ul ate</w>
suffici ently</w>
p e,</w>
enough ,</w>
temper ature</w>
ship s,</w>
s ick
su pre
BO O
E ast
M S</w>
man uscrip
i di
H ud
my self,</w>
F ree</w>
B ed
say ing,</w>
hill s</w>
B ell
Syd ney</w>
contro lled</w>
suppor ting</w>
f ate</w>
ta ste</w>
ali ze</w>
( see</w>
tem por
C ow
iz ing</w>
ne st
yi el
w ol
Jud ge</w>
possi bility</w>
ud e,</w>
s _,</w>
seri es.</w>
8 ).</w>
pl ate</w>
amp le</w>
im it
happ iness</w>
gr ounds</w>
theat re</w>
b low</w>
Li ght</w>
z y</w>
pro por
" She</w>
S S
( 15
ll ing</w>
ob st
be tra
3 8</w>
W a
c up
public ation</w>
th ank</w>
ill -
Tayl or</w>
Con tro
sc or
re ality</w>
A y
ca using</w>
ant as
bra ve</w>
L ang
ter 's</w>
Lou isi
p edi
forgott en</w>
2 ;</w>
R .
stri king</w>
soldi er</w>
techn ical</w>
gi e</w>
appro ached</w>
la v
s tim
cros sing</w>
com edy</w>
c lin
audi ence</w>
Histor ical</w>
cerem on
E mer
comb ination</w>
st ation
f et
class ical</w>
faith ful</w>
pati ent</w>
them e</w>
Ri ver,</w>
Le ad
deriv ative</w>
Norwe gian</w>
( 17
Pennsylv ani
C lo
Wis cons
level s</w>
te ach</w>
st ones</w>
ul timately</w>
coun ten
mo tor
N A</w>
sou l
D id</w>
regi ons</w>
bor ough</w>
gr ant</w>
sec ured</w>
k el
Europ e.</w>
campa ign
ex ternal</w>
pl ed</w>
L L
u le</w>
threat ened</w>
acc used</w>
D AM
Inf antry</w>
mur der
ap h
6 :</w>
Georgi a</w>
degre es</w>
Portugu ese</w>
loo k
him self
n -
tran sport</w>
dec re
serv ant</w>
"Th at's</w>
shor t,</w>
3 1,</w>
Ter rit
( also</w>
Th ur
resid ence</w>
rul ed</w>
B ot
nar r
At l
es e,</w>
prison ers</w>
cha in</w>
er y.</w>
see king</w>
Cl ass
ha ven
hand s.</w>
trium ph
com fort</w>
hon or
acc ust
An im
trans fer</w>
mod e</w>
pic k</w>
G ame</w>
( 188
High way</w>
ter i
8 th</w>
ographic al</w>
D ri
fil es</w>
b in
lin ked</w>
p av
cap ture</w>
fil m,</w>
vent ure</w>
fail ure</w>
un usual</w>
al i</w>
agre ement.</w>
concer t</w>
. =</w>
TI ON</w>
da ys
Revi ew
bri dge,</w>
su itable</w>
I V</w>
circ u
Sing ap
tradi tion</w>
pi one
are a,</w>
en s.</w>
Ph ys
evid ent</w>
A F
e ip
purch ase</w>
Asi a</w>
pl us</w>
sit es</w>
d ates</w>
exist s</w>
C EN
Bil ly</w>
he l</w>
lim itation</w>
L og
mis sion.</w>
3 00
pur po
Rob in
chap ter</w>
Bar on</w>
head quarters</w>
b ag
N ations</w>
b lock</w>
G on
si di
German y.</w>
chem ical</w>
4 ]</w>
R ou
mer ged</w>
famili es.</w>
bas eball</w>
la st
tre es,</w>
y et,</w>
pi ano</w>
prev ail
practic ally</w>
far ther</w>
ang le</w>
ay a</w>
us u
mu st
k id
com plic
sp ot
es sive</w>
D ubl
modi fied</w>
re presents</w>
m 's</w>
care ful</w>
ra is
Olymp ics</w>
y c
D an</w>
mon t</w>
7 %</w>
dollar s</w>
hop es</w>
Sen ior</w>
ma il</w>
L ow
p ir
compre h
s ed
18 th</w>
rest ored</w>
j ew
f itted</w>
jus tic
Ju an</w>
Sha kes
M en</w>
Med al</w>
ã o</w>
appe al</w>
way s,</w>
imp ul
li ght.</w>
elec tions</w>
sof tware</w>
P itt
quanti ty</w>
G E
Mar c
alle l</w>
cont emp
as le
"Wh y</w>
A del
! --
E ag
i i
order ,</w>
Bri dge</w>
se ;</w>
poet ry</w>
un ited</w>
ex posed</w>
ut ter</w>
Mississipp i</w>
A I
thorough ly</w>
chief ly</w>
K in
sa ke</w>
f ra
s ed,</w>
' s.</w>
id ing</w>
shi r
s in</w>
indic ated</w>
hi red</w>
In c
conflic t</w>
6 %</w>
emp ty</w>
apparen t</w>
tw o,</w>
R av
Wh y,</w>
crimin al</w>
distric ts</w>
Nav al</w>
8 %</w>
u tive</w>
j ust
Gr am
u tion,</w>
electr on
a ),</w>
l est</w>
offer ing</w>
rec ol
character istic</w>
R ud
D ave</w>
al )</w>
im ages</w>
view ,</w>
bus h
Z e
champi on</w>
us ed.</w>
" (
De ath
s now</w>
fi er
st er,</w>
univers al</w>
im proved</w>
ant -
su re,</w>
in spec
s add
brilli ant</w>
sw im
dre am</w>
recogni tion</w>
m ate</w>
el ement</w>
bel ong</w>
200 2,</w>
e ties</w>
roc ks</w>
offici als</w>
ac le</w>
know .</w>
As sist
wil d
el even</w>
p .
Ch o
4 00</w>
tu res
el o
c ig
re stor
R ose</w>
Dist ribu
L and</w>
Award s.</w>
B eng
nec k</w>
projec ts</w>
it self.</w>
L iter
des ir
U T</w>
H us
7 5</w>
Al an</w>
bre ad</w>
to t
lo t.</w>
plan e</w>
ta .</w>
di d,</w>
Sw iss</w>
exam ples</w>
re t</w>
7 :</w>
T an
Indi a,</w>
st al
cli ff
Mon tre
w ing
aliz ation</w>
P AR
le g</w>
boo ks,</w>
Pl aces</w>
altern ative</w>
P E
ol ,</w>
servic e,</w>
Pal est
" When</w>
ex act</w>
Mo ham
3 7</w>
ch as
201 8.</w>
period .</w>
mad e,</w>
He ad
ris es</w>
ig n,</w>
bu tt
s word</w>
enc y,</w>
Des crip
P ear
M ot
Ad v
Sh ow
Org ani
incid ent</w>
oc ese</w>
arch it
re in
mar ch</w>
inter pret
king dom</w>
convinc ed</w>
sh ri
rec eip
ai red</w>
Ni ght
or ious</w>
( 3)</w>
hor ri
pow er.</w>
B apti
S hel
ash es</w>
ang ry</w>
sol ution</w>
A venue</w>
Leagu e.</w>
reg ularly</w>
chair man</w>
ve ter
hear ts</w>
C ity.</w>
in a.</w>
K an
stor y,</w>
nin et
S ri</w>
Illino is</w>
absol ute</w>
Al ab
y o</w>
Br and
attrac ted</w>
fa ther.</w>
la "</w>
no ise</w>
smil ed</w>
ac ent</w>
"N o</w>
suff er</w>
even ing,</w>
del eg
( for</w>
Inter net</w>
r ushed</w>
198 7</w>
198 4</w>
dep th</w>
y ester
tra ins</w>
s ale</w>
gl ory</w>
c rown</w>
ing ly,</w>
St u
verth eless,</w>
d inn
t ab
ou se</w>
Thom p
club s</w>
or -
in fl
descri be</w>
uni form</w>
em ber
or ation</w>
antic ip
fac tor
speci fied</w>
Compan y,</w>
too .</w>
lin e
enor m
Philadelphi a</w>
O tt
imp ati
Fren ch
W ater</w>
comp elled</w>
fi x</w>
busin ess,</w>
pri de</w>
im prove</w>
ask ed.</w>
M en's</w>
bit ter</w>
Canad a.</w>
lo como
t ly,</w>
ir s</w>
ass ist</w>
ind ul
gu ide</w>
ati ve,</w>
pro portion</w>
enthusi as
Or le
adap ted</w>
mag ne
add ed,</w>
ban k
ob sc
4 8</w>
Shakes pe
chestr a</w>
._ --
co al</w>
kind s</w>
j unction</w>
are s</w>
po is
sol e</w>
s ad
Li ver
tr e</w>
A )</w>
o' clock</w>
re tained</w>
conc ep
circ le</w>
read er</w>
sw ept</w>
ind ing</w>
Pat rick</w>
ga y</w>
adv ice</w>
b or</w>
A unt</w>
C ot
s i</w>
P ublic
ex tra</w>
Mar ine</w>
muse um</w>
Temp le</w>
cloth es</w>
" I'll</w>
o )</w>
sha dow</w>
le ap
F ern
N ation
exp edi
LI MI
in di
educ ation.</w>
dist urb
develop ing</w>
K now
4 ,
is her</w>
tit les</w>
8 :</w>
d ying</w>
200 4.</w>
splen did</w>
festiv al</w>
Tre at
tod ay</w>
Dougl as</w>
ta st
lat er.</w>
judg ment</w>
our s.</w>
anc ell
W H
comp any
re jo
pic tures</w>
Wom en</w>
198 6</w>
ver sions</w>
h ang</w>
l er
v eng
Th ou</w>
tri p</w>
engine er</w>
exp edition</w>
pro sec
reput ation</w>
fe et.</w>
gu ess</w>
Journ al</w>
Gord on</w>
r ound,</w>
B ac
Jer sey</w>
C R
dis claim
How ard</w>
occ er</w>
conclu sion</w>
J O
f ancy</w>
F M</w>
4 2</w>
B ag
depend s</w>
____ ____
Dav is</w>
epis odes</w>
proper ly</w>
C os
promo te</w>
cle an
af ter,</w>
F OR
ligh ted</w>
f ond</w>
ent re
V ide
sum mon
Gover nor
paragraph s</w>
A tt
N ative</w>
franc hi
lead ership</w>
US A</w>
concer ned</w>
ap pre
per sist
ob edi
vo ted</w>
Fo x</w>
co w</w>
9 ).</w>
abil ity,</w>
N ag
lo vely</w>
I ow
you ,"</w>
b ed.</w>
ma p</w>
ch or
ang ,</w>
se ats</w>
is lands</w>
ir a</w>
bre ath</w>
v in</w>
C rown</w>
nav ig
typ ical</w>
LIMI TED</w>
Du ch
th- century</w>
an other.</w>
re marked</w>
9 th</w>
Massachuset ts</w>
Medi a</w>
ed ited</w>
id e,</w>
a uc
ei ght
where as</w>
fle w</w>
poss es
o s.</w>
l oud</w>
S lo
Jose ph
de vi
sp ic
mach in
ar t.</w>
se t,</w>
flo od
Ch em
U p</w>
prot ec
ha ,</w>
stret ched</w>
pas sion</w>
bron ze</w>
op ol
re duce</w>
Gu il
Austri an</w>
adm it</w>
Phi lli
Ber lin</w>
dam aged</w>
Connec tic
tiv e.</w>
Fo rest</w>
e qui
loc ations</w>
I ran
-- but</w>
compos er</w>
s al</w>
schol ar
bas ic</w>
dest in
s ounds</w>
Ara b</w>
fin ishing</w>
c ath
ture s,</w>
2 /
so -
no v
Franc is
gover nor
a .
land ed</w>
ri ding</w>
b ian</w>
D ic
unc le</w>
- like</w>
read ing.</w>
U se</w>
y l</w>
Mar ie</w>
DAM AG
Provinc e,</w>
di al
resour ces</w>
list ened</w>
“ The</w>
o b</w>
rest ,</w>
mann er,</w>
found ing</w>
batt ali
back ground</w>
Techn ology</w>
king dom
p ounds</w>
c ad
tri es</w>
y ?"</w>
offic es</w>
.... ....
rug by</w>
L en
b ishop
a is
am id</w>
jur is
er ected</w>
rac e,</w>
Nor man</w>
resist ance</w>
am ent</w>
nor m
lo ve
ob i
" Z
di min
t estim
schem e</w>
po em</w>
He bre
por t,</w>
E ric</w>
gre y</w>
view ed</w>
God .</w>
pain ter</w>
fac ilities</w>
th ;</w>
kin d,</w>
An na</w>
d ings</w>
3 9</w>
our ing</w>
No thing</w>
ann e</w>
clim ate</w>
offic e,</w>
Fi ve</w>
gr o</w>
transl ation</w>
view .</w>
" To</w>
Fin al</w>
graphi c</w>
reg iment</w>
pen et
Fi f
arti fic
o g</w>
Ch annel</w>
M and
exc eption</w>
mo on</w>
opport unities</w>
M ess
par allel</w>
comfort able</w>
198 0</w>
ast s</w>
L ast</w>
v ain</w>
b ath
Rom ani
cust om</w>
P R
Pri v
Const ant
de struction</w>
Budd hi
know n,</w>
ed ,"</w>
the e,</w>
ac y.</w>
P y
Be at
Comm unic
fing ers</w>
i b
shou ld
á n</w>
guil ty</w>
oper ate</w>
ne arest</w>
am us
Nat ural</w>
Cam bridge</w>
T RI
id en
vers ary</w>
en su
c ells</w>
ad ding</w>
r ing
st one,</w>
in duc
3 /
sion al</w>
R ug
Ear th</w>
o t,</w>
G un
4 ;</w>
Prov ince</w>
D own
pl enty</w>
de vil
A then
K ong</w>
B uck
a o</w>
' The</w>
sbur g</w>
interrup ted</w>
se "</w>
accust omed</w>
( d.</w>
philosoph y</w>
hy po
3 ;</w>
agricul tural</w>
rac ing</w>
cle ar
em ber.</w>
Found ation's</w>
neu tr
Al -
heav en</w>
tion "</w>
compl ying</w>
ri er</w>
N ature</w>
V ar
al co
g res
Arch itec
her self,</w>
brief ly</w>
D aw
enc e;</w>
An y</w>
16 6
n s,</w>
enc y.</w>
" New</w>
vot es</w>
B uc
b y.</w>
pres sion</w>
om an</w>
Regi onal</w>
la bel</w>
mem or
CA A</w>
sing les</w>
Inde ed,</w>
him ."</w>
t ext
hang ing</w>
as s,</w>
B our
in aug
D ue</w>
ev isi
16 8
W A
le ast,</w>
wor ship</w>
K y
' T
co ordin
pr ince</w>
198 5</w>
wou ld
U pper</w>
pal ace</w>
K ansas</w>
sa iled</w>
Liber al</w>
part y,</w>
por ting</w>
Canad a,</w>
re ven
Chap ter</w>
oun ce</w>
al one.</w>
el eg
Li f
trademar k.</w>
band s</w>
ha r</w>
fe ed</w>
G o</w>
id ity</w>
Corpor ation</w>
an th
wa ste</w>
Con cer
St ock
ke e
com ic</w>
prec ious</w>
u tions</w>
dist ur
jour ne
mod els</w>
di ver
pr ud
N ight</w>
T RA
s ang</w>
exist ed</w>
E mil
C an</w>
exp ense</w>
Lou is
Alf red</w>
ER .</w>
En viron
fol i
p ine</w>
Su n</w>
men tion
De ath</w>
de bu
Po int</w>
tion ary</w>
GUTENBER G</w>
wel come</w>
ass ass
Win ter</w>
ul ous</w>
br ings</w>
ac tion.</w>
te am,</w>
myster ious</w>
The od
u e.</w>
w rec
perc eived</w>
arm ,</w>
9 %</w>
ro ,</w>
hand some</w>
dark ness</w>
c ard
U P
pri ze</w>
comm unities</w>
viol ence</w>
C ome</w>
restric tions</w>
ste am</w>
With out</w>
ex pos
gra y</w>
z o</w>
it z</w>
k ov
vi ve</w>
os ity</w>
" to</w>
En d</w>
Studi es</w>
peti tion</w>
perform ing,</w>
jus ti
la hom
bur ned</w>
hus band,</w>
en h
hor se
dis cre
proc ed
equival ent</w>
g or
5 7</w>
ap art</w>
ev in</w>
O ut</w>
eg o</w>
comm ent
po p</w>
M ik
fic tion</w>
P sy
Th or
Egyp tian</w>
ac tion,</w>
Anton io</w>
ni ghts</w>
L ud
" you</w>
"Wh y,</w>
Californi a.</w>
Phi losop
mov ements</w>
resol ution</w>
gg ed</w>
Is lands</w>
D omin
part ner</w>
fla g</w>
mp tion</w>
Manag ement</w>
sevent h</w>
o th
mat ter,</w>
gl ass
un a</w>
calcul ated</w>
se ud
arrang ement</w>
Ben jam
arti stic</w>
le d
Det ro
" Di
inj ury</w>
u tion.</w>
contr ast</w>
" Is</w>
B eg
immen se</w>
smo ke</w>
y es,</w>
bu ri
bour ne</w>
Ital y,</w>
A li
es -
H end
Ind ustri
la d</w>
ü r
Engl ish,</w>
sal es</w>
supp lied</w>
R an
ra rely</w>
& c.</w>
t s
cy lin
cr yst
N am
st o
t ue</w>
bu d
ud es</w>
M S
writ er,</w>
employ ment</w>
happ en</w>
Hu gh</w>
list en</w>
4 4</w>
delic ate</w>
document ary</w>
per cent
elec tion.</w>
Jim my</w>
fr ing
f asc
im posed</w>
á n
min ds</w>
H is
exhi bition</w>
N ap
neg ative</w>
consider ation</w>
T S</w>
thir ty-
chur ches</w>
carri age</w>
sel dom</w>
trademar k,</w>
P ain
liber ty</w>
P RE
Ma x</w>
cen sus</w>
passeng er</w>
og en
on )</w>
poin ting</w>
Australi a,</w>
conven i
Cast .</w>
D anish</w>
Af gh
Mis sion</w>
ent 's</w>
Sec urity</w>
Is land,</w>
Pier re</w>
Lincol n</w>
g es</w>
br and</w>
E D
ai m</w>
5 ]</w>
c ov
Al i</w>
mom ents</w>
H ot</w>
st airs</w>
w oods</w>
K ol
tis m</w>
in :</w>
sh e,</w>
ak a</w>
en able</w>
ket s</w>
Con t
inj ured</w>
D od
4 1</w>
C ou
Mid d
doc tor
engine ering</w>
S ong</w>
n am</w>
pres ently</w>
accur ate</w>
ad equ
cut ting</w>
eag er</w>
ann y</w>
music .</w>
st up
Mar qu
fa il</w>
ti ,</w>
mon ey
1.E. 1</w>
1.F. 3,</w>
thes is</w>
adj acent</w>
ab str
Bal tim
rail road</w>
T est
John ny</w>
well- known</w>
flow er</w>
with ,</w>
don e.</w>
centuri es</w>
ber g
Gab ri
an )</w>
í a</w>
Co st
K on
doctr ine</w>
An d
hur ried</w>
d row
z es</w>
institu tions</w>
anc est
voic e.</w>
1.E. 9.</w>
vis ed</w>
belong s</w>
A D</w>
( died</w>
ec k
198 3</w>
sk y,</w>
world 's</w>
at s.</w>
Ar tic
4 7</w>
me ,"</w>
en ly</w>
P in
tic s,</w>
mor tal</w>
comb at</w>
chang e.</w>
prac ti
Pro gram
b all,</w>
Vol ume</w>
a b</w>
ida e.</w>
Sp ir
wear ing</w>
re "</w>
responsi bility</w>
re signed</w>
still ,</w>
( 187
c k</w>
cre ature</w>
Tour nam
accoun ts</w>
dem and
Engine ering</w>
bu ll
C oo
ir y</w>
consec utive</w>
Ok lahom
hy per
h ence</w>
D E</w>
( W
5 5</w>
wit ness</w>
cerem ony</w>
on ing</w>
house holds</w>
mon ast
cens us,</w>
fa ul
sel ection</w>
licens ed</w>
oper a</w>
N H
recover ed</w>
et ed</w>
,00 0.</w>
aut um
H all,</w>
comm enced</w>
tol er
den ied</w>
hur t</w>
al es</w>
17 0
prov ision</w>
' em</w>
car p
nucle ar</w>
o y
ar ose</w>
cast ing</w>
h ood,</w>
charg es</w>
Christop her</w>
dru g</w>
F ut
air .</w>
langu age,</w>
. ;</w>
Feder ation</w>
Gir l
h .</w>
Th at's</w>
epis od
il a</w>
commis sion</w>
f ab
themsel ves.</w>
t an</w>
laun ch</w>
foc used</w>
ing 's</w>
Y u
str ing</w>
ish -
B Y</w>
T reas
Je ffer
at titude</w>
ef f</w>
expan sion</w>
Bi ble</w>
r ating</w>
qu e,</w>
School .</w>
no is
to x
af ford</w>
S we
sla ve</w>
lau gh</w>
dri ver</w>
high way</w>
Cro ati
independ ence</w>
16 0
what so
ig ned</w>
Mic ro
on :</w>
"S o</w>
imp act</w>
sa ys
N ev
Peop le's</w>
In stitut
Jac ob
Mr s</w>
Joh n,</w>
wit ness
cred ited</w>
h ockey</w>
Har t
def ense</w>
J acqu
ac id</w>
198 2</w>
aw ards</w>
9 :</w>
iv es</w>
Portu g
histor ian</w>
func tions</w>
m ation</w>
effic i
Sen ator</w>
Loc al</w>
to- day</w>
, --</w>
Ser ge
n el.</w>
cou ld
t ang
R ural</w>
10 .
pil ot</w>
ari ties</w>
assu red</w>
se en,</w>
gi ft</w>
g est
I ni
glo bal</w>
municip al</w>
( 1
depar ture</w>
bl ind</w>
fac ing</w>
C ov
u ce</w>
col ored</w>
N ever</w>
no body</w>
th ings.</w>
E ,</w>
mat ter
sh ed</w>
inc lined</w>
de ad,</w>
sy mp
del igh
Gl as
Ca ther
Pol y
er b
def end
mo ther.</w>
o tic</w>
m am
st ation,</w>
chur ch
weap ons</w>
ed r
T -
scre en</w>
camp us</w>
May or</w>
Rom e,</w>
serv ants</w>
retur ns</w>
O L
argu ed</w>
thod ox</w>
Ma y,</w>
leg islat
def end</w>
rac es</w>
Pri or</w>
w an</w>
er to</w>
build ing,</w>
H ot
sm all,</w>
k ings</w>
Comm itte
pu zz
ast ro
O d
in ev
II "</w>
her o</w>
u ted</w>
l en
n "</w>
con sum
div or
Vi ol
F itz
us ;</w>
col lap
H awa
sp rang</w>
hi l
b one</w>
fac ility</w>
se a.</w>
c os
la sted</w>
sal t</w>
pp . 
imm igr
P ass
br and
ud ed</w>
sport ation</w>
6 6
Car l</w>
thin k
Smi th,</w>
e a</w>
Wil d
gen u
cont ra
w et</w>
L oo
- +
tion :</w>
Sy stem</w>
T ot
D S</w>
wor th
te en
qu ot
el abor
reser ve</w>
F -
fl at
acces sible</w>
ne phe
K ing,</w>
ne arer</w>
in su
er s;</w>
def ence</w>
et s.</w>
( ;</w>
ard o</w>
cham ber</w>
morn ing.</w>
pra y</w>
Y an
b are</w>
G az
17 th</w>
e ).</w>
es cor
Fri ed
bur g,</w>
onym ous</w>
imag ine</w>
st om
B ren
p lot</w>
we 'll</w>
an no
her ;</w>
Are a</w>
es ),</w>
200 3.</w>
t )</w>
C it
cop ied</w>
sk ill</w>
busin ess.</w>
W IL
Ag ricul
ic ally,</w>
sa il</w>
t ude</w>
follow s:</w>
ni a</w>
remain der</w>
ol d.</w>
or "</w>
197 2</w>
ro yal
res cu
lo ad
B RE
beat en</w>
Town ship</w>
discus sion</w>
read ily</w>
ing er</w>
ad r
compan y.</w>
N CAA</w>
sec ret
peop le
langu ages</w>
so oner</w>
Sar ah</w>
prof ession
Pat ri
b igg
prob able</w>
( 1)</w>
ri val</w>
ation ."</w>
ac ks</w>
200 0.</w>
197 9</w>
H ell
"W e
correc t</w>
land ing</w>
archit ect</w>
7 ]</w>
d ust
p en</w>
Ab ra
v ed.</w>
fund am
F ab
Islam ic</w>
compani on</w>
cas es,</w>
the ore
tr ace</w>
e enth</w>
cl esi
Lor d,</w>
M other</w>
dis put
inv ent
f id
ari es,</w>
sym path
poss ess</w>
cas e.</w>
So on</w>
Jos é</w>
Prof essional</w>
Ch all
satisfac tion</w>
Israel i</w>
T im</w>
repli ed,</w>
resul t,</w>
T A</w>
D ak
J av
whit e,</w>
n y
e _,</w>
B ER
on ia</w>
se ar
at a"</w>
mil it
spir its</w>
j ack
Com ple
Wh at
in sec
C level
ber g,</w>
Greg ory</w>
" Re
in ary</w>
con greg
aff ir
shoo ting</w>
ur s</w>
b read
le ft,</w>
S till</w>
ke 's</w>
as es</w>
5 ;</w>
Gr ant</w>
a than</w>
4 3</w>
equip ment.</w>
regi on.</w>
it ely</w>
With in</w>
O ak
answer ed,</w>
su ic
ad e.</w>
sh ell</w>
All en</w>
lif t</w>
inj uri
de emed</w>
hel ping</w>
Leg isl
Ge ography.</w>
la h</w>
eful ly</w>
4 6</w>
ed ?</w>
Lab our</w>
V ery</w>
al t</w>
arg ument</w>
ak er</w>
own ers</w>
it o</w>
thes e,</w>
Hol ly
P el
vehic le</w>
sit e.</w>
F red</w>
ov ed</w>
ph ase</w>
197 6</w>
lic ense</w>
pat tern
199 9,</w>
bo t</w>
juris dic
MEN T</w>
w all,</w>
ar c
ro l</w>
Uk ra
prec ip
aff air</w>
e ge</w>
b old</w>
s mar
P ost</w>
Bas eball</w>
S imp
af for
compil ation</w>
enem ies</w>
E th
list ening</w>
M ach
G oo
concer n
Sp ani
than ks</w>
X -
per .</w>
clo sing</w>
land s.</w>
ab sur
el -
ff ,</w>
rec ep
ask ed,</w>
la .</w>
se ed</w>
utter ly</w>
hour ,</w>
T ake</w>
hun ting</w>
en abled</w>
drum s</w>
al iv
be t</w>
alog ue</w>
dis played</w>
com position</w>
exten sion</w>
lo aded</w>
comp ens
coun t
don ’t</w>
in tim
my th
Hamil ton</w>
west ,</w>
Back ground.</w>
T U
cros s-
ous ed</w>
leng th,</w>
16 th</w>
exc ited</w>
difficul ties</w>
ock et</w>
ity :</w>
R ow
6 8
quiet ly</w>
contro vers
gener al,</w>
b y-
R ay</w>
ph os
though ,</w>
R ound</w>
F ord</w>
M am
tre e,</w>
know n.</w>
De an</w>
ma ke
Se ason</w>
k new
and er
"B ill
K az
as si
N FL</w>
grou p
instr ument</w>
ut tered</w>
AS C
cal m</w>
u al
19 20
it ure</w>
all ing</w>
ent ;</w>
hi de</w>
om s</w>
b old
Law rence</w>
j er
be ating</w>
10 th</w>
V e
h ast</w>
phenom en
accompl ished</w>
W OR
s an
com for
man age</w>
Hung arian</w>
wh el
st an
distinc tion</w>
19 00
s wal
Ri ver.</w>
Car l
cl ust
te eth</w>
fu el</w>
le ft
a ."</w>
dec k</w>
la m</w>
fun ds</w>
pra ised</w>
you 've</w>
fe es</w>
w as.</w>
passeng ers</w>
Sp ace</w>
W ed
ri dic
acquain ted</w>
Bru ce</w>
appropri ate</w>
Tor onto</w>
tran spor
u a</w>
BOO K</w>
K no
te a</w>
ear ning</w>
ement s,</w>
cous in</w>
S crip
198 1</w>
n 's</w>
M AN
Ch er
haven 't</w>
ographi c</w>
occup ation</w>
ong ,</w>
An dr
pe ak</w>
plan ning</w>
accid ent</w>
inst ance</w>
writ es</w>
jo y
U D
ri gh
enjo y
r age</w>
t :</w>
" For</w>
Wel sh</w>
Dep uty</w>
An n</w>
fem in
Musli m</w>
may or</w>
ant e</w>
prevent ed</w>
sacri fice</w>
presid ential</w>
h o</w>
al d
se a-
" ",</w>
star ts</w>
Web site</w>
D all
L ower</w>
z e,</w>
C row
provinc ial</w>
M ack
e ti
uc i
s wa
L ig
K evin</w>
p ill
bl ind
spe aks</w>
enorm ous</w>
met res</w>
J an</w>
L ank
et -
keep er</w>
cy cle</w>
el der</w>
German s</w>
ad ult</w>
o on</w>
fiv e-
"L et</w>
c him
S of
L il
roll ing</w>
pra ise</w>
multi -
rejec ted</w>
Tel evision</w>
investig ation</w>
F ro
sub -
st ock
arm y,</w>
ur ged</w>
me at</w>
re alized</w>
cy cl
c ool</w>
organiz ations</w>
ab out,</w>
Vic tor</w>
r ound.</w>
instr um
U -
Si x
the -
C ric
Ma x
i. e.</w>
pro of
ement s.</w>
list ing.</w>
sec retary</w>
ri vers</w>
Pu erto</w>
whi st
K or
attribu ted</w>
cru el</w>
receip t</w>
the astern</w>
h t
Sp ain,</w>
prec ed
ou tw
es c
Exc ept</w>
V el
nar row
voic es</w>
I -
M itch
-- to</w>
bo ards</w>
tic .</w>
196 8</w>
12 th</w>
ing )</w>
fa ult</w>
Col lin
offic e.</w>
stic k</w>
d ynast
indic ating</w>
pl ying</w>
194 5</w>
H ockey</w>
You th</w>
Li ght
Admir al</w>
ful ly,</w>
invasi on</w>
( O
197 1</w>
scri be</w>
p s
w ick</w>
proper ties</w>
in "</w>
di str
au x</w>
ab out
exha ust
ou l</w>
vir tue</w>
sla ves</w>
sympa thy</w>
kind ly</w>
mis sing</w>
journ alist</w>
vis iting</w>
sist er,</w>
w ound</w>
c attle</w>
th rowing</w>
per sec
beg inn
hous es,</w>
ro les</w>
boo k.</w>
es !</w>
S af
loc ked</w>
gam es.</w>
( 186
old -
f ed</w>
b ic
Chair man</w>
plac ing</w>
del ight</w>
high ,</w>
mor t
s and</w>
grow s</w>
T on
children 's</w>
assist ed</w>
o thy</w>
Mat t</w>
privil eg
fin als</w>
ri st,</w>
proce ed</w>
R ub
ep ,</w>
Squ adron</w>
En erg
exam in
furn ished</w>
% .</w>
ph on
Thi r
b our</w>
16 9
mar ched</w>
Braz ilian</w>
til ity</w>
ide al</w>
qu is
con cre
H it
w ins</w>
5 2</w>
200 1.</w>
6 ]</w>
tw ith
Hel en</w>
N ob
agre eable</w>
gen i
er ."</w>
sion s,</w>
tan e
197 4</w>
Cz ech</w>
dec ide</w>
k en,</w>
gen e</w>
dis playing</w>
friend ship</w>
cy clo
gl orious</w>
P .
200 2.</w>
b ou
law yer</w>
B ah
U E
lab our</w>
be ars</w>
differ ences</w>
con fer
4 9</w>
di a</w>
hi ther
g il
mer .</w>
wh ence</w>
co t
West ,</w>
der s.</w>
U M
Harv ard</w>
lad y,</w>
é r
f us
bo l</w>
n er.</w>
bur g
sh ut
H ab
int ense</w>
st ating</w>
S or
I v
Au thor
on ."</w>
197 8</w>
sugg est</w>
inst antly</w>
0 ).</w>
colon ial</w>
hor se,</w>
smoo th</w>
pre ferred</w>
Matthe w</w>
care er,</w>
treat y</w>
cour ses</w>
lim it
as "</w>
Sec ret
Offic er</w>
tal e</w>
j an</w>
coun sel
execu ted</w>
t ack
strang er</w>
pre gn
da ,</w>
long .</w>
Indon es
o is
St ev
pover ty</w>
whe el</w>
Net work</w>
mil k</w>
gentle men</w>
P G
un like</w>
wal ks</w>
ear ,</w>
stat ements</w>
D -
Go th
s —
k ar
popul ation.</w>
sh e's</w>
m ill</w>
aw ful</w>
mi x</w>
app ed</w>
end or
fu ri
H ugh
A qu
att or
l i</w>
EN D</w>
N ext</w>
C A</w>
k ill
t z
In c.</w>
c es,</w>
mo th</w>
" Con
litt le,</w>
desc ended</w>
iss ance</w>
Ad am
E sp
C emeter
Al ice</w>
shoo t</w>
m es
on ian</w>
Man chester</w>
br ut
list en
whisp ered</w>
ext inc
strat eg
ur n</w>
= "
F igh
encour aged</w>
Spec i
gh ,</w>
s !"</w>
su re
C ec
sett le</w>
& c
ran ts</w>
destro y
ch i</w>
C ant
sour i</w>
g ul
ash ,</w>
tri bes</w>
ph er
N A
hom es</w>
fi ed,</w>
On line</w>
w are</w>
lim it</w>
main taining</w>
p ity</w>
pre dec
Ri o</w>
ym n
H .
per son,</w>
suspic i
correspond ing</w>
re sign
Mill er</w>
4 00
rep ly</w>
c ards</w>
fe ared</w>
pr int
et on</w>
ce ase</w>
am ate
lo os
eng er</w>
ö r
fac ulty</w>
fl esh</w>
R ain
clos er</w>
fain t</w>
c ed
femal es</w>
cred it
fi ght
albu ms</w>
produc tion,</w>
sec tions</w>
iter ran
C en
don ate</w>
7 ;</w>
Satur day</w>
wil der
S T</w>
fat al</w>
H all
wor d.</w>
star t
M L
T op
thr ust</w>
d é
remo te</w>
Bas ket
A vi
T en</w>
l us
wa ves</w>
altern ate</w>
N .
P ul
instr ument
lo -
w ishes</w>
197 5</w>
as sum
De part
sou l,</w>
Some times</w>
p -
N ep
Mis souri</w>
fac tory</w>
Pol ic
ens is"</w>
er e's</w>
h ate</w>
F err
he im
t ell
appro aching</w>
Mus ic
v est
Y el
respec tive</w>
sh ine</w>
b are
"O ne</w>
ba by</w>
Color ado</w>
fier ce</w>
Uk rain
ti de</w>
rough ly</w>
B ,</w>
Minnes ota</w>
b t
produc es</w>
there by</w>
sched uled</w>
Par k
Constitu tion</w>
em pi
A ma
e ternal</w>
ar ise</w>
Co .</w>
Whi ch</w>
t able.</w>
ach ment</w>
hor ror</w>
gr ass
recol lec
er s"</w>
Pol and</w>
stud ying</w>
et 's</w>
Vol unte
re pro
dis posed</w>
de ar,</w>
level .</w>
P ad
: 0
197 7</w>
f at</w>
con trad
nat ure
mon ey.</w>
ex er
ath ,</w>
C ad
for ward,</w>
Par ad
pursu ed</w>
mou th,</w>
Cap it
wis e,</w>
Pakist an</w>
F ire</w>
D '
E qu
e _
word s.</w>
( V
197 0</w>
you ?</w>
13 th</w>
Tim es"</w>
me ets</w>
bal ance</w>
re conc
P lot.</w>
N u
etc .,</w>
recogn ised</w>
way s.</w>
ac u
rhy th
ff i
r ou
Char lie</w>
Ar g
S car
Her itage</w>
Americ an,</w>
cent .</w>
anch ol
sie ur</w>
inst alled</w>
ti sh
199 8,</w>
in ser
bil lion</w>
flow s</w>
th um
, ’</w>
d ust</w>
K ra
H as
U ta
at o
acc um
err a</w>
J a
band 's</w>
Har ris
P -
ac t,</w>
A M</w>
ar s,</w>
u el
bigg est</w>
educ ation,</w>
charac ter.</w>
dic t
fe e
specific ally</w>
no .</w>
colum n</w>
poli tics</w>
Child ren
mechan ical</w>
Rec eption.</w>
J i
M ap
B A</w>
aw a</w>
prof ess
st ation.</w>
uc t
hol der</w>
spec tac
bre a
ke e</w>
tor s,</w>
promin ently</w>
in ian</w>
Ch ang
Wor k
ing ,"</w>
in ess,</w>
Sil ver</w>
an o
Servic es</w>
Comm ander</w>
prison er</w>
dy nam
sugg ests</w>
no se</w>
- day</w>
fund ing</w>
Clar k</w>
ble -
favour ite</w>
Jer ry</w>
Commun ist</w>
dog s</w>
e ating</w>
mor tal
An dy</w>
8 ]</w>
tra il</w>
K im</w>
W r
Pe ace</w>
consci ousness</w>
def ect</w>
sion s.</w>
susp ected</w>
wif e.</w>
mu ch,</w>
u tili
al ist
f are
succ ess.</w>
solem n</w>
larg e,</w>
rac e.</w>
Independ ent</w>
NO T</w>
al u
Publ ish
temper at
.-- _
ful ly.</w>
hour s,</w>
I V.</w>
Y e
consider ing</w>
bac king</w>
sc and
plan ted</w>
Ro y</w>
j unior</w>
Pitt sbur
F un
k a,</w>
sing le-
so- called</w>
Educ ation.</w>
ha ir,</w>
recomm ended</w>
Af ter
scre en
u res
Met ropolitan</w>
ke en</w>
order .</w>
artill ery</w>
RE C
d ale</w>
Afric a,</w>
ocr atic</w>
co graph
pul l</w>
m it</w>
off ensive</w>
ask a</w>
A us
J eff</w>
sun g</w>
m ²
on t
uni versi
invol ving</w>
A ven
on ce.</w>
Bar on
am e,</w>
eld est</w>
egg s</w>
po t</w>
P )</w>
ough ,</w>
wind ow,</w>
terr or
16 7
Legisl ative</w>
F inn
Buil ding</w>
nat ure.</w>
ore s</w>
in ;</w>
th y
: --
cl oud</w>
ke y,</w>
tel eg
é ,</w>
Egyp t</w>
N O</w>
go d</w>
min ing</w>
d educ
Common wealth</w>
month s,</w>
ha ve,</w>
tri be</w>
ri ver.</w>
rac ial</w>
environ mental</w>
pri est
tru th
H az
perm it</w>
e. g.</w>
Princ ip
prec eding</w>
ob serve</w>
a er
propri etary</w>
char t</w>
Benjam in</w>
Addi tional</w>
p ace</w>
build ing.</w>
neighbor hood</w>
ex -
ro ots</w>
ol der.</w>
compet e</w>
R est
ri val
Rug by</w>
6 ;</w>
Pho to
Nic ol
gl ad
Moun tain
197 3</w>
oc e
enc ing</w>
5 ,
guit ar,</w>
list s</w>
Ral ph</w>
des p
ques tion,</w>
doub t,</w>
identi ty</w>
meas ure
( from</w>
it ated</w>
w er</w>
amb ass
Ale x</w>
star red</w>
Mean while,</w>
architec ture</w>
anim ated</w>
every body</w>
15 th</w>
M eg
H oo
8 ;</w>
ha g
shar ing</w>
li eu</w>
an other
s ati
St atis
Je an-
W rest
con spir
quali ties</w>
Jer se
Med iterran
exemp t</w>
Fre ed
sat ell
row .</w>
Ren a
N ick</w>
9 ]</w>
sub sidi
pl es,</w>
let ter,</w>
"O f</w>
l en</w>
g ang</w>
retire ment</w>
re sumed</w>
di c</w>
symp tom
bo ard,</w>
store s</w>
speci es.</w>
k a
week ly</w>
Ch ron
s ession</w>
Ir on</w>
Ag ain
r ush</w>
Mic hel
re vel
s man</w>
ag e;</w>
as ks</w>
child .</w>
pati ents</w>
second -
prosp er
y et
p ly</w>
St ri
Ho tel</w>
" -
lan e</w>
subjec t,</w>
vill age,</w>
r ,</w>
commun ity.</w>
ing --
N Y
G EN
ide .</w>
strong er</w>
poin t.</w>
roman tic</w>
depar ted</w>
J ar
Jun e,</w>
p ick
fing er</w>
Comm on</w>
os la
contrad ic
se e.</w>
em ic</w>
Kh an</w>
pri me</w>
Indi ana</w>
speci es,</w>
B ell</w>
r ates</w>
pron ounced</w>
e x</w>
fl our
S ti
adj ust
mom ent.</w>
lo an</w>
lyric s</w>
11 th</w>
" As</w>
pr ise</w>
tin y</w>
Ven ez
exam ination</w>
gam es,</w>
Sec ond
i ii.</w>
de struc
le af</w>
assem bled</w>
lo dg
DV D</w>
Orig in
ard 's</w>
divisi ons</w>
concer n</w>
critic ism</w>
cour se.</w>
Sy n
Wor ks</w>
Per sian</w>
gener ations</w>
B each</w>
purpos es</w>
R ey
J en
15 0</w>
pra yer</w>
insist ed</w>
O ne
bl essed</w>
B yr
chur ch.</w>
B C
H at
g ods</w>
15 0
O cc
ran ks</w>
mast er,</w>
trans lat
my self
em or
Nichol as</w>
con fined</w>
ali ve</w>
B is
" On</w>
asp ect</w>
ma inten
Chin a.</w>
Frank lin</w>
"Bill board
( ?
b rick</w>
_ I
ef s</w>
forc e,</w>
design s</w>
r ass
reas on,</w>
contro versi
y s,</w>
M R
pl um
Ira q
ab rup
Mar k
l s,</w>
respectivel y.</w>
14 th</w>
and o</w>
program ming</w>
f -
astr onom
pre fer
Reg im
sing ular</w>
auth ors</w>
Be ing</w>
lin es,</w>
unfortun ate</w>
not ably</w>
s oo
ak es</w>
song ,</w>
Bir ming
dis crimin
form ats</w>
Spr ing
fil ed</w>
friend s.</w>
f ans</w>
Fi el
"Wh o</w>
ed !</w>
P S
S ic
Phi l
comm itte
h ung
d ull</w>
mas sive</w>
econom y</w>
abov e,</w>
5 1</w>
et t</w>
exam ined</w>
pap er,</w>
Gul f</w>
Chin a,</w>
ri dge</w>
ich ,</w>
S ep
oper ates</w>
D in
Indi an
TH AT</w>
low est</w>
mix ture</w>
be g</w>
f ishing</w>
N S
p ast,</w>
5 4</w>
sig ning</w>
Stat e,</w>
ov a</w>
wind s</w>
A pol
in e"</w>
pri mi
clesi as
The y
" Un
spec t
F ull</w>
W es
mis sion,</w>
trav elled</w>
Jon athan</w>
196 9</w>
w ich</w>
wee k,</w>
music ian</w>
continu ous</w>
Char ac
ST AR
Afric a.</w>
process ing</w>
cri ed,</w>
thr one</w>
over whel
n atives</w>
gi ant</w>
c oc
B ey
rec re
at us</w>
ER ,</w>
Des ign</w>
de vice</w>
c us
grou p,</w>
2 "</w>
en si
iv od
wom en.</w>
C ari
el ess
Sp an
Sal t</w>
institu tion</w>
C up
5 /
equi pped</w>
Brig ade</w>
doc uments</w>
toge ther
Ire land,</w>
A A
struc tures</w>
portra it</w>
re action</w>
nerv ous</w>
ox y
Glo bal</w>
se as</w>
F L
---------------- ----------------
mo tor</w>
u sion</w>
D EN
c inem
clo th</w>
milli ons</w>
Ukrain ian</w>
g ood.</w>
surviv ed</w>
em .</w>
P av
gl anced</w>
lo f
un ci
exhib ited</w>
ture r</w>
Stan ley</w>
th under
def ective</w>
qu een</w>
parti al</w>
P I
wom an's</w>
Sci ences</w>
Viet nam
18 2
atmosph ere</w>
em i
ud d
medi um,</w>
ab ilities</w>
comm on
st able</w>
inno cent</w>
substanti al</w>
Jul y,</w>
Arch bishop</w>
m o</w>
tr am
AL ,</w>
Cam p</w>
alleg ed</w>
clas sic</w>
mel anchol
Car los</w>
for d.</w>
Oper ation</w>
ist ed</w>
D og
parti ally</w>
gen ous</w>
( including</w>
Augu st,</w>
K os
ore .</w>
wis dom</w>
http://www.gutenberg .org/
gen ius</w>
tong ue</w>
prepar ing</w>
dr un
put s</w>
supp lies</w>
leg ally</w>
s k</w>
V as
ent ers</w>
b ade</w>
let on</w>
ste ady</w>
Th y</w>
la sting</w>
Fran ç
def ensive</w>
o is</w>
ens ure</w>
B and
govern ment
Wash ing
Gr ace</w>
dec lined</w>
susp ended</w>
law y
( ),</w>
id a</w>
like wise</w>
cour t,</w>
dec id
magnific ent</w>
196 7</w>
W ag
wom an.</w>
ent ly.</w>
et ing</w>
." [
t ub
Pl ace</w>
~ }</w>
A ar
199 7,</w>
ad mi
tis su
al e,</w>
ar chae
How ever</w>
ob ile</w>
Ott oman</w>
C C
ric k
member s.</w>
leagu es</w>
e ze</w>
con sent</w>
We ek
occasi onal</w>
Ch and
ri ,</w>
str ate
p ound
An ci
ca p</w>
cont est</w>
l ou
5 6</w>
ili ties.</w>
" Com
Spi rit</w>
Boo ks</w>
M oo
d ating</w>
H E
Ex am
H im</w>
ul es</w>
Prov id
Rus sell</w>
over -
._ ]</w>
inst all
form ally</w>
j e</w>
ar ist
ter ior</w>
loc k
ivod eshi
war ning</w>
s or</w>
Coun ty.</w>
A ren
Ini ti
Assist ant</w>
event s,</w>
A post
More over,</w>
d ish
ro ot</w>
sa y.</w>
continu ing</w>
" Ma
crow ded</w>
4 /
TH O
in duced</w>
p end
bre ast</w>
i on
discus sed</w>
a ,"</w>
at or.</w>
196 4</w>
por t.</w>
fac tor</w>
" it</w>
on e;</w>
199 6,</w>
it e.</w>
deta iled</w>
interpre ted</w>
g ross</w>
pla y.</w>
no thing.</w>
le is
ec tor</w>
Gr ad
ref use</w>
F A
sh ining</w>
G ur
d ub
J ason</w>
s ’</w>
col oured</w>
elec tro
St adium</w>
vol can
E vent
O ff
gu ests</w>
Pl ac
journ al</w>
stra ight
s is</w>
tar get</w>
no tion</w>
pap er
( who</w>
. 0
represent ation</w>
le t,</w>
Coun t
Pla yer</w>
ext end</w>
mis sions</w>
present .</w>
low ed</w>
la ying</w>
Gu ine
liber al</w>
consist ent</w>
mir ac
i an.</w>
Kore a</w>
lo ve.</w>
kis sed</w>
shoul der</w>
cor p
adv anc
no te
9 ;</w>
be half</w>
TI ES</w>
[ [
wher e.</w>
Aff airs</w>
lim its</w>
purch as
cam e,</w>
att ending</w>
de ad.</w>
ir rit
An gl
sp are</w>
us :</w>
Di ego</w>
thro p
l adi
favor ite</w>
fe els</w>
bat ter
" Mr.</w>
L ON
Bel gian</w>
it ter</w>
Mu ch</w>
chi ll
no thing
http:// pglaf
I O
in e's</w>
prepar ation</w>
enter pris
k o
Si x</w>
ac y,</w>
Sch ol
contem pl
dram atic</w>
h ood
dread ful</w>
y ),</w>
B and</w>
wear y</w>
publ ish
Vo ivodeshi
st ag
C up.</w>
3 2
Bra h
P it
ad minist
St ory</w>
sur vive</w>
clou ds</w>
young est</w>
mo on
roc k
199 9.</w>
au x
K ,</w>
Econom ic</w>
Bar n
lat est</w>
arm .</w>
ak i</w>
Ro ad
z y
deser t</w>
Colum bi
air port</w>
short -
twith standing</w>
tion ally,</w>
S C
wat er-
lo ves</w>
countri es.</w>
pun ishment</w>
L loy
5 3</w>
phys ici
p our</w>
in val
recogni ze</w>
e ased</w>
no thing,</w>
D at
teach ers</w>
ü n
mad e.</w>
constitu tion</w>
mobil e</w>
gu ar
char ming</w>
Mar tin
subm itted</w>
provisi ons</w>
Barbar a</w>
st ages</w>
experi ences</w>
enter tain
Char le
ment ed</w>
king 's</w>
om a</w>
sens e,</w>
con fron
Ed it
C .,</w>
are :</w>
hol id
ag a</w>
Tr ade</w>
York :</w>
si ght
R ab
ag ency</w>
ic o</w>
R yan</w>
Ex hi
ef .</w>
E y
agg er
refl ected</w>
ext ending</w>
sur ge
PO S
el e</w>
cop ying</w>
particip ate</w>
tor s.</w>
F F
id ae</w>
s op
g one,</w>
excit ement</w>
ste ad,</w>
eigh th</w>
sig ni
t end</w>
M organ</w>
cri m
g os
hun gr
ell o</w>
pol e</w>
r ab
pres sing</w>
Re ad
ation ]</w>
es _</w>
pursu e</w>
i x</w>
Bibli ography.</w>
dem ands</w>
Ro y
Ontari o</w>
ti m</w>
as ham
6 4</w>
resc ue</w>
0 :</w>
Le ban
event s.</w>
constitu tional</w>
expens es,</w>
gener ous</w>
lo ving</w>
stat ue</w>
earth qu
Hawa i
instr uments</w>
" Ne
ut most</w>
Chur ch.</w>
o be
n ing,</w>
Dig ital</w>
"N ow</w>
sw it
s ank</w>
e o</w>
hel pl
show ,</w>
ern al</w>
k es,</w>
vel y,</w>
I an</w>
squ ad</w>
pat tern</w>
A ud
assem bly</w>
Ander son</w>
strong ,</w>
shel ter</w>
M ann
Fren ch,</w>
Phi l</w>
Char lot
Con n
caval ry</w>
nor theast</w>
L od
Flo ren
G ary</w>
rel uct
north west</w>
W ould</w>
aff ection</w>
t ted</w>
-- he</w>
ture s.</w>
p it</w>
am id
fellow s</w>
in qui
10 -
D ow
Her bert</w>
Stre et
res sed</w>
aliz ing</w>
Mar ch,</w>
Tim es</w>
7 7
ing ham</w>
mat ter.</w>
( 2)</w>
H e's</w>
iv .</w>
sovere ign
de pri
T og
M A</w>
cour ts</w>
Chur ch
R ot
el li
gol d,</w>
v ell
relat ing</w>
is e.</w>
be c</w>
foo d,</w>
il s,</w>
( 185
vehi cles</w>
Intern ation
vis ual</w>
program me</w>
hum ble</w>
for bid
g ates</w>
visit ors</w>
inf ra
B od
wonder ed</w>
ll a</w>
ph one</w>
her self.</w>
cap tain
Har t</w>
ey e,</w>
she et</w>
secon ds</w>
sli pped</w>
amp ed</w>
Tr ust</w>
exce ed
st uff
Jac ob</w>
Kar l</w>
t z</w>
es ?</w>
pan ic</w>
ho sts</w>
fore st
arm s.</w>
bl ess
part y.</w>
tend ency</w>
"Y our</w>
C lif
inf antry</w>
ag greg
ing ly.</w>
Br y
b ay</w>
Cam er
trou bled</w>
yi eld</w>
refl ec
im perial</w>
For ces</w>
cor n</w>
requ ested</w>
del iver</w>
develop ment.</w>
ab ase</w>
seri ously</w>
lik e,</w>
stre et,</w>
mem br
"Wh ere</w>
th ank
h ood.</w>
observ ation</w>
S till
eth nic</w>
cru el
respec t
stor y
po ems</w>
Oli ver</w>
p oured</w>
an tr
b is
re la
a us
es ).</w>
wid est</w>
gg ing</w>
Sol om
le an</w>
em ail</w>
de fic
contr ary</w>
less ly</w>
St one</w>
re alis
t ag
R oc
Sci enti
merch ant</w>
read s</w>
c ited</w>
candid ates</w>
Pr o</w>
gather ing</w>
el igi
streng th
valu es</w>
Brook ly
drin king</w>
premi ered</w>
sur vey</w>
a ).</w>
S ho
hor ses,</w>
publ ishing</w>
soci ety,</w>
trav ell
ac tors</w>
ro of
kind .</w>
V ice</w>
in y</w>
P ay
ra .</w>
lat ely</w>
bo at,</w>
Gl en
ev i
impres sed</w>
tri but
st am
knoc ked</w>
196 6</w>
aff ect</w>
elev ation</w>
x t</w>
sc he</w>
read able</w>
carri es</w>
Protest ant</w>
- of-
organ ic</w>
K -
? --
Pro duced</w>
Col om
Ro ad,</w>
Ros s</w>
rest .</w>
possi ble
aspec ts</w>
Descrip tion.</w>
ap par
sp an
H app
uc c
Spr ing</w>
re 's</w>
respond ed</w>
Ch al
im per
Gi b
S even</w>
bi e</w>
Ang lo-
s er</w>
Par is
mu ch
hither to</w>
n ly</w>
su gar</w>
. ),</w>
Kent ucky</w>
M it
Ca es
Sept ember,</w>
b ones</w>
f ting</w>
or i</w>
H ill,</w>
compar ison</w>
Un til</w>
on ly,</w>
n a,</w>
dis appeared</w>
pay ment</w>
ear n</w>
plac ement</w>
pow ered</w>
on t</w>
Po or</w>
depend ent</w>
Oreg on</w>
pi pe</w>
s ob
j azz</w>
row ed</w>
fil m.</w>
P ir
g s</w>
re leg
Ele mentary</w>
B ail
6 7
com rad
AC H</w>
M é
is ation</w>
four teen</w>
un ted</w>
ch in
Pro jec
speci ally</w>
embar rass
dem ol
N AS
ic al,</w>
friend .</w>
ac re</w>
al um
repe at
conver t</w>
F ish
F UL
atic ally</w>
man ;</w>
meas ured</w>
end ed,</w>
G h
pri ests</w>
il le</w>
en ch
ha l</w>
suppor t.</w>
prop ag
---- --
chall enge</w>
min e,</w>
mag ic</w>
Wil d</w>
le af
break fast</w>
Ther e's</w>
P ep
15 4
Mu ham
Pal ace</w>
N ad
hon our
fl ung</w>
s ed.</w>
pre domin
( 2
cal m
min a</w>
every one</w>
5 8</w>
interest .</w>
E T
fin est</w>
ant 's</w>
ch ro
199 5,</w>
196 0</w>
mag istr
S R
month s.</w>
En cyclo
de feat
ex plic
Octo ber,</w>
ca use.</w>
num er
c emeter
H ir
fi ed.</w>
myster y</w>
loo m</w>
Har old</w>
"Billboard "</w>
H ad
ar ray</w>
Gall ery</w>
"Y es,"</w>
Mel bourne</w>
1 ,000</w>
Apri l,</w>
cle ared</w>
N I
p ep
o' cloc
langu age.</w>
R ights</w>
H ut
Mos cow</w>
reci pi
mut ual</w>
fir st
le y's</w>
Bo y</w>
manufac tur
stro ke</w>
go al
col d,</w>
exc use</w>
it ude</w>
red -
ON .</w>
P ,</w>
air cra
conc eived</w>
Gra ham</w>
He al
196 5</w>
Co op
spec ul
E M
solic it</w>
un d.</w>
or ph
" I've</w>
it --
fir ing</w>
ing en
Regi on</w>
ac res</w>
be et
po ster
D um
ar rest</w>
mis sil
environ ment</w>
cric ket</w>
d rug
bound ary</w>
pair s</w>
Ne vertheless,</w>
fiel d
N ur
in dign
% ,</w>
In stitu
deal ing</w>
p ear
Y ug
eng ines</w>
s ne
Nether lands</w>
cha pel</w>
ol .</w>
verth eless</w>
W ord
paint ings</w>
vis its</w>
cha ir,</w>
B UT
vari ed</w>
dep lo
partner ship</w>
ill .</w>
15 9
ess entially</w>
el eph
ad ul
ut ing</w>
f ound,</w>
" Ar
"M on
anc e;</w>
pro spec
anti qu
Tennes see</w>
elo qu
r ud
me !</w>
K it
Gu ardi
vill age.</w>
influ ential</w>
resid ential</w>
L ac
net t</w>
sc ra
succ ess,</w>
S )</w>
Bern ard</w>
but ter
hand le</w>
i ti
Confeder ate</w>
re now
Cul tural</w>
tor n</w>
tran sp
isi tion</w>
o h
in hab
ga ther</w>
Def ense</w>
cont est
condem ned</w>
pil gri
subst ance</w>
er ror</w>
can ,</w>
Pri x</w>
Rel ig
achi eve</w>
approv al</w>
moder ate</w>
A gain</w>
ati ves,</w>
Ad ams</w>
ty 's</w>
sun ,</w>
In tel
for got</w>
bl y,</w>
por tions</w>
victim s</w>
u k</w>
me ad
" Mar
Reser ve</w>
g ently</w>
volum es</w>
hy m
propos al</w>
sha p
L av
Tra ining</w>
bl an
desper ate</w>
Stre et.</w>
doc ument</w>
Rom an
Dav id
trav elling</w>
shi re.</w>
Mac ed
sir ,"</w>
199 8.</w>
K im
doubt less</w>
represent atives</w>
can v
obvi ous</w>
Li thu
play er.</w>
t ."</w>
tiv ity</w>
illustr ated</w>
op en,</w>
en forc
read ers</w>
Mo ore</w>
mann er.</w>
Ch ancell
g om
6 9
F all
gra ph</w>
Bang lad
sur g
modi fic
Par is.</w>
" Be
artific ial</w>
di d.</w>
re aches</w>
popul arity</w>
licens e,</w>
v is</w>
en g</w>
z o
saf ely</w>
E Book</w>
V ER
Ar till
Dr ag
Di am
Lat er,</w>
ga zed</w>
claim ing</w>
"C ome</w>
arri ve</w>
G ent
on es,</w>
el ine</w>
quo ted</w>
though t.</w>
A ge</w>
ocrac y</w>
stand ards</w>
a un
long ed</w>
198 0s</w>
shou ted</w>
Cen sus</w>
dis pos
underst and,</w>
sequ ence</w>
believ es</w>
Mis sou
Con vention</w>
et te
righ te
dar k,</w>
S ir
cri tics</w>
Represent atives</w>
V eg
grou p.</w>
m i</w>
ali a</w>
Administr ation</w>
l uc
in ed,</w>
review s</w>
r in
mo t
ac t.</w>
ther ap
ep id
at i</w>
defin ite</w>
ly :</w>
Squ are</w>
v s.</w>
re form</w>
. ’</w>
197 0s</w>
ch lor
mis s</w>
Fil m
ti ght
ex clud
Fri end
Conserv ative</w>
midd le-
A ber
K ap
whi r
fundam ental</w>
la st.</w>
i e,</w>
c he</w>
medic ine</w>
[Illustr ation]</w>
eigh teen</w>
exec ution</w>
pic tures
en ue</w>
prote in</w>
mur mu
es sion,</w>
debu ted</w>
m ates</w>
s u</w>
ques tion.</w>
LI TY</w>
keep s</w>
roc k,</w>
Mur ray</w>
exclu sively</w>
G ust
ham .</w>
hi s
Gu ard</w>
Vill age</w>
ful ness</w>
let ter
se ven
ari es.</w>
hill ,</w>
oc ean</w>
har m</w>
ma id</w>
emer ged</w>
stre am
attemp ting</w>
N ow
categ ory</w>
f ast,</w>
danc ing</w>
-- The</w>
h all
accep ting</w>
some where</w>
classi fied</w>
Revol ution</w>
be en,</w>
Gre ek
d um
volunte er</w>
invest ment</w>
concer ns</w>
it ate</w>
aim ed</w>
e ur</w>
Christi ans</w>
ar bit
Bu ffal
medi eval</w>
Sp enc
con n
diag no
co ar
M ,</w>
confu sion</w>
Ter ms</w>
glo om
perc us
Ch rist,</w>
Re al</w>
DI REC
h ow,</w>
t omb
p ent
defe ating</w>
deligh ted</w>
comm emor
1 1.
- to-
C ob
Ariz ona</w>
b be
da red</w>
b und
comm une</w>
six ty</w>
f an</w>
contr ary,</w>
voc al</w>
ator s,</w>
un happy</w>
purpos e,</w>
F ame</w>
prep are
E BOOK</w>
W ood</w>
199 4,</w>
g le</w>
os e,</w>
p g
Ire land.</w>
Un it
ass ur
II I,</w>
an ist
acquaint ance</w>
depend ing</w>
en di
c at</w>
hour s.</w>
servic es.</w>
p ur</w>
ph ony</w>
b ay
Nel son</w>
Mar sh
assu me</w>
albu m.</w>
disp ens
mol ec
mov es</w>
6 :
Enter tainment</w>
trad ing</w>
er ",</w>
st oc
sp ending</w>
legisl ation</w>
Jap an,</w>
sh ops</w>
Basket ball</w>
primi tive</w>
them ."</w>
a to</w>
** ***</w>
nor th,</w>
medi ate</w>
pa ired</w>
low s</w>
Par k.</w>
mis erable</w>
sim pl
U .</w>
schol ars</w>
sav age</w>
resid ent</w>
south west</w>
you ;</w>
ap olog
kitch en</w>
abl es,</w>
six teen</w>
stop p
mo tiv
T Y,</w>
da y's</w>
Pro file</w>
Energ y</w>
Town ship,</w>
k iss</w>
ed s,</w>
fla v
n '
Po et
n ut</w>
flow ing</w>
voy age</w>
Jam a
prec is
d ing,</w>
Napole on</w>
h att
ate :</w>
At tor
B og
.com /
religi on,</w>
C li
so red</w>
B av
g ig
Ther efore,</w>
di es</w>
da w
T ab
194 4</w>
cri tic</w>
und ou
on ce
g ang
C ust
Som er
5 9</w>
exhi bi
guar ante
p y
Mon sieur</w>
x "</w>
DIS TRI
H ans</w>
6 00</w>
continu ally</w>
in quired</w>
z one</w>
supre me</w>
super sti
ter ror</w>
Virgini a,</w>
Sim il
For mer</w>
acknowle dged</w>
K night</w>
agg res
f ame</w>
ai ,</w>
" Qu
z h
es _,</w>
squ adron</w>
rec alled</w>
7 8
Champi ons</w>
Ed m
t xt</w>
weal thy</w>
M P</w>
arrang ements</w>
travel ed</w>
Rob in</w>
receiv es</w>
us ers</w>
L ef
Van illa</w>
col ony</w>
ab ly,</w>
th ful</w>
Bes ides</w>
Anci ent</w>
Hon or
L .
pen alty</w>
l ess.</w>
dra ft</w>
rec ur
en vel
f it
Bro ther
occasi ons</w>
Ital y.</w>
wed ding</w>
h ut
conven tional</w>
j o</w>
blood ,</w>
15 8
prof its</w>
od d</w>
sus pec
cul ture.</w>
West min
im plic
ac he</w>
Har ris</w>
countri es,</w>
point s,</w>
i est</w>
regi on,</w>
( 4
whatso ever.</w>
ear th.</w>
T em
P hy
Wol f
reg ards</w>
w ire</w>
dis per
ward s.</w>
-- it</w>
c ock
Gard en</w>
Virg in</w>
( J
< /
wid e,</w>
T ell</w>
ren ,</w>
recomm end
distingu ish</w>
ber ry</w>
dign ity</w>
imag ination</w>
prot est</w>
es ome</w>
sur ve
B ris
in n</w>
stor y.</w>
gra p
you 'd</w>
El li
hel ps</w>
Pri mary</w>
fol ded</w>
b o</w>
ha i</w>
daugh ters</w>
10 ,000</w>
den y</w>
affec tion
Battali on</w>
sou theast</w>
vic tim</w>
" Pro
eBoo ks,</w>
re w
Don ations</w>
abo ard</w>
W on
ignor ant</w>
er a,</w>
sym bol</w>
( b
As s
ath ers</w>
ev alu
Swed en</w>
WARRAN TIES</w>
distric t,</w>
196 0s</w>
S how</w>
you th,</w>
ov en</w>
inc lin
P ag
sh oc
coun ted</w>
m er,</w>
tribu te</w>
Wiscons in</w>
testim ony</w>
Sus an</w>
Tha il
opini ons</w>
concre te</w>
k ir
plain ly</w>
Or thodox</w>
n u
Bar ry</w>
ll er</w>
me ?"</w>
Edinbur gh</w>
any body</w>
re med
conc eption</w>
par ad
continu ed,</w>
Cather ine</w>
infin ite</w>
at ing,</w>
TION S</w>
prot est
enc lo
mar k,</w>
Person nel.</w>
sil k</w>
L ec
bel oved</w>
rest ed</w>
char itable</w>
pat ch</w>
flo or,</w>
ant ine</w>
" in</w>
consequ ently</w>
collabor ation</w>
bad ly</w>
trem end
inter fer
number ed</w>
ri gu
D own</w>
pe ace,</w>
anc ou
cott on</w>
V oc
Pat ric
portra yed</w>
ou th</w>
s 's</w>
Me thod
Ple ase</w>
sa ving</w>
hel p,</w>
v e-
absor bed</w>
establ ishing</w>
Hou se
o ted</w>
defini tion</w>
re alize</w>
pain ful</w>
believ e,</w>
smil ing</w>
i um</w>
emper or</w>
for ty-
surviv ing</w>
g au
l an</w>
Shor tly</w>
p ocket</w>
al tar</w>
achel or</w>
e v</w>
creat ures</w>
mist ake</w>
gri ev
purpo se.</w>
" ".</w>
Ex cell
hic al</w>
j ar
S ist
Ar ound</w>
( 14
awa k
car to
re tain</w>
-- for</w>
sty le,</w>
batt le,</w>
T ul
deep er</w>
Fer din
un ,</w>
mu st,</w>
Tournam ent</w>
L i</w>
my self.</w>
el ect</w>
b ann
Naz i</w>
S on</w>
ge 's</w>
a ther,</w>
stri p</w>
el er
it u
with draw
tre ati
ass ure</w>
master 's</w>
Vide o</w>
sou ls</w>
w icked</w>
plac es,</w>
lin es.</w>
u x</w>
our s,</w>
Ro yalty</w>
Ma k
in tr
2 1.</w>
re ward</w>
mon arch
succ ession</w>
 m m</w>
6 ,
Rail road</w>
stim ul
k ;</w>
soci ety.</w>
H ann
Pol and.</w>
id er</w>
h ind</w>
p a</w>
Soci ety,</w>
anni versary</w>
"W ell
parliam entary</w>
A rist
a x</w>
intellig ent</w>
S par
f an
S ak
un certain
process es</w>
b its</w>
th e,</w>
A i
ste ep</w>
person nel</w>
h all,</w>
st um
NB A</w>
Am bass
slight est</w>
st u
Red ist
prosp ect</w>
an a"</w>
ei j
conf used</w>
firm ly</w>
m m</w>
minut es,</w>
Tam il</w>
co ach
anal og
re store</w>
199 2,</w>
199 7.</w>
Mary land</w>
land 's</w>
supp li
Wal ker</w>
cit y's</w>
con spic
should ers</w>
had n't</w>
in d,</w>
wee k.</w>
- and-
Olymp ics.</w>
Sal v
Mexic o,</w>
sleep ing</w>
LI AB
inst ances</w>
ma .</w>
w ish
hi d</w>
Braz il</w>
y ’s</w>
sor ts</w>
si ght,</w>
di ed,</w>
12 -
S ophi
manufac turing</w>
Is ab
Heav en</w>
──── ────
characteris tics</w>
int ens
anxi ety</w>
sel ec
he im</w>
f illing</w>
A R</w>
odi c</w>
Bure au</w>
Louisi ana</w>
s ham
196 2</w>
L ook</w>
J r
new s
al ist,</w>
BRE ACH</w>
Yug osla
Par t
R at
ty r
command ing</w>
D r</w>
od a</w>
Treat y</w>
F ra
ou ts</w>
f ati
199 6.</w>
re marks</w>
min ary</w>
H ans
DAMAG ES</w>
exam ine</w>
196 3</w>
DIREC T,</w>
ev a</w>
summ it</w>
li eutenant</w>
adv ised</w>
Al so,</w>
rele v
organis ation</w>
194 8</w>
hi ,</w>
sh ock</w>
indic ates</w>
ent ally</w>
appeare d,</w>
mar sh
199 3,</w>
Am ster
mem orial</w>
sty le.</w>
architec tural</w>
S port
Rich ard
d ow
will .</w>
Lar ry</w>
fu r</w>
H ob
spir it,</w>
exc av
Lic ense.</w>
discus s</w>
Mor ris</w>
Cam pa
r and
secon d,</w>
E P</w>
et a</w>
dis missed</w>
it ems</w>
Revi ew</w>
Victor ian</w>
chang e,</w>
ne 's</w>
Gri ff
bac ked</w>
16 4
circumst ances,</w>
disclaim er</w>
cont ents</w>
cons ist</w>
commer ci
8 4
b in</w>
with drew</w>
ag og
delight ful</w>
ic k.</w>
Queens land</w>
r as
pre fer</w>
amate ur</w>
lean ed</w>
Wil hel
Greec e</w>
dec line</w>
u i
del ay</w>
7 /
9 /
tim ber</w>
chi ev
Pro gram</w>
( 184
west .</w>
Nov a</w>
C inc
ag ents</w>
dist ance,</w>
is e
exceed ingly</w>
for give</w>
sa r</w>
st ers</w>
FUL L</w>
it !</w>
am end
br a</w>
sha de</w>
replac ing</w>
over come</w>
pro found</w>
Kel ly</w>
disp ute</w>
lo ver</w>
sub ordin
P ER
sle pt</w>
fl am
public ly</w>
supp le
al g
dep end</w>
Gre ater</w>
Redist ribu
b at</w>
re- use</w>
connec ting</w>
coff ee</w>
def ended</w>
instruc tions</w>
ON ,</w>
grat eful</w>
D ub
T ren
"P lain</w>
rul ing</w>
advant ages</w>
ma k
ma ker</w>
in ess
col d
u "</w>
mal es.</w>
hon est
chem istr
194 2</w>
an :</w>
a ys</w>
on ly
hi s,</w>
no bl
Iran .</w>
copy ing,</w>
Record s.</w>
be ach</w>
st rict</w>
on a,</w>
F ine</w>
By z
t ennis</w>
y !"</w>
fool ish</w>
C ann
r h
appear ance,</w>
Hebre w</w>
y _</w>
Christian ity</w>
in flic
Lu ther
dis appoint
W er
weap on</w>
Sud den
B ear
law s.</w>
sla very</w>
17 4
identi fication</w>
gu ardi
W W
bo at
u ch
re treat</w>
B E</w>
fore sts</w>
or d,</w>
t ut
ba g</w>
br e</w>
Jap an.</w>
H unt
pre ad</w>
LI CEN
spe ed
ini ,</w>
merc y</w>
London :</w>
hel p
V iv
po or
Tom my</w>
physic ian</w>
B R
V it
she ep</w>
Her e,</w>
G w
b ond
wid es
do th</w>
in er</w>
hor r
Cat al
T as
Gi ov
Viet nam</w>
t am
eph one</w>
N R
Sp ain.</w>
gu er
imp lied</w>
k s
oc curren
cre ative</w>
V ancou
iden tical</w>
m -
ch ew
l are</w>
GRE E</w>
stra in</w>
fac ul
sor row</w>
K ey
Ma z
UN I
isol ated</w>
Tr in
conce aled</w>
T est</w>
bo il
Muse um,</w>
O ,</w>
ic op
St adi
m s
establ ish
Detro it</w>
Z o
mur dered</w>
writ ings</w>
l ag
inter ven
bel ow,</w>
phy si
eng ra
em y</w>
l ati
invol v
pen sion</w>
perc ep
12 .
he 'd</w>
sha res</w>
research .</w>
devi l</w>
stric tly</w>
display ing,</w>
Dem ographic
associ ate</w>
descri bing</w>
f ish,</w>
sh ore,</w>
sou th,</w>
In tro
persu aded</w>
child hood</w>
stat e's</w>
acc ess
v ent</w>
wou ld,</w>
v ital</w>
è re</w>
ref und.</w>
Whe ther</w>
g ers</w>
T en
beg ged</w>
specim ens</w>
school s,</w>
az z
assa ult</w>
as e,</w>
gain ing</w>
Per forman
Un like</w>
er son</w>
6 /
exclu sive</w>
ag e:</w>
thre at</w>
envel op
Ru th</w>
ri fle</w>
sur name</w>
F la
distur bed</w>
LICEN SE</w>
t able
th ence</w>
Sing h</w>
2 1st</w>
for ce
Mar shall</w>
C inem
under -
Austri a</w>
har v
Al ong</w>
neighbour ing</w>
fright ened</w>
"L e</w>
mon ument</w>
A GREE</w>
adequ ate</w>
GH T</w>
de grad
wher ever</w>
st adium</w>
T ower</w>
DE R</w>
itt en</w>
" for</w>
cros s
fic tional</w>
compar atively</w>
199 0,</w>
inno v
effor t,</w>
bud get</w>
Da ily</w>
1.E. 7</w>
1.E. 8</w>
contribu tion</w>
V ik
Ac t
om ing</w>
K id
lo ts</w>
elec toral</w>
coast al</w>
cour se
k y
ex quis
Per si
cri bed</w>
w ood.</w>
S le
meet ings</w>
col or
An tar
S ad
in op
kni fe</w>
bo ard.</w>
Charlot te</w>
c ant
Pr ad
minim um</w>
J as
in timate</w>
Pr ac
gi es</w>
al lied</w>
laugh ing</w>
t ons</w>
ASC II"</w>
Kenn edy</w>
critic ized</w>
milli on.</w>
newspap ers</w>
experim ents</w>
sustain ed</w>
Whit e,</w>
W ay</w>
inter nation
tw o.</w>
n ol
bl ame</w>
scrip t</w>
Jes u
Afgh anist
or da
sh oot
m ic</w>
signific antly</w>
lean ing</w>
Thomp son</w>
su re.</w>
ec clesias
st ared</w>
il s.</w>
ot t</w>
CE O</w>
character ized</w>
d on,</w>
st ern</w>
hos tile</w>
member ship</w>
distric t.</w>
V lad
z er</w>
we 're</w>
sup ports</w>
Tr adi
ear nest</w>
Rep or
increas ingly</w>
pe aked</w>
is land,</w>
sugges tion</w>
1.E. 1.</w>
1.E. 8.</w>
L as</w>
ev ent.</w>
ath let
194 3</w>
W ard</w>
n ;</w>
S ign
k l
genu ine</w>
T err
sen sible</w>
TH ER</w>
Nov ember,</w>
Ad vent
in vari
gre en
N in
fi res</w>
Ob serv
dep uty</w>
u -
cab in</w>
DISTRI BUT
sel ect</w>
in t,</w>
r us
S z
landscap e</w>
suspic ion</w>
e k.</w>
Que en's</w>
X i
stat es
U B
ator s.</w>
reg ard
d "</w>
reli eved</w>
inter v
N an
wh o
p . 
pat ron
effic ient</w>
es si
y on
tou ching</w>
ati ve.</w>
six -
hab its</w>
I cel
al :</w>
deta il</w>
ail s</w>
jum ped</w>
ro pe</w>
v ey
S ound</w>
ban ks,</w>
fellow ,</w>
stead ily</w>
me al</w>
offic er,</w>
j ury</w>
Lu is</w>
em bro
pl un
c in
infer ior</w>
War ren</w>
195 6</w>
decor ated</w>
arri ving</w>
C arm
Wh ere
ali tion</w>
fu n</w>
v ener
re public
Sm all</w>
Thur s
D C</w>
acc o</w>
"G ood</w>
Adel a
gener ated</w>
K un
um -
c ared</w>
comm uni
Dre am
lon ely</w>
S n
Jo an</w>
b ilities</w>
ti tu
char ity</w>
mainten ance</w>
ann i</w>
school s.</w>
is er</w>
car ved</w>
Bob by</w>
admir ation</w>
er ing,</w>
improv ement</w>
P ris
thir teen</w>
so m</w>
Oklahom a</w>
crow ned</w>
M ut
g ender</w>
sim plic
mon str
per spec
Broad way</w>
cop per</w>
dec lare</w>
heal thy</w>
sci ence,</w>
Shor t</w>
199 1,</w>
fun eral</w>
hol es</w>
F on
C P
ig rants</w>
bloc ks</w>
ad her
Gon z
W it
drag ged</w>
T T
V in
ow e</w>
ur .</w>
enem y,</w>
succe ed</w>
fir st.</w>
bow ed</w>
K le
$ 1.
comb in
Ke ith</w>
bet ter
id ly</w>
consider ably</w>
( if</w>
In du
Bes ides,</w>
Smi th
canc er</w>
def ending</w>
fai th,</w>
sub marine</w>
wid ow</w>
f lies</w>
eng age</w>
A er
fellow -
cris is</w>
F ai
L ate</w>
narr ative</w>
p urely</w>
For tun
ma y,</w>
Intel lig
op tim
loc ks</w>
He in
ha v
paren t</w>
Lu ke</w>
elev ated</w>
every where</w>
w ashed</w>
deb ate</w>
minut es.</w>
ra d</w>
r ushing</w>
proc ess.</w>
ca ve</w>
in ess.</w>
Russi a,</w>
se en.</w>
music ians</w>
convic tion</w>
embr ac
sie ge</w>
industr y.</w>
favor able</w>
-- in</w>
Y am
room s,</w>
eas ier</w>
applic ations</w>
M -
re vers
mat ure</w>
Jord an</w>
Oce an</w>
W .
la p</w>
7 5
unt ary</w>
interest ,</w>
Ne br
’ d</w>
staff .</w>
Stew art</w>
w ed</w>
E ff
bloc k
heal th,</w>
, )</w>
S ag
Servic e.</w>
fac tors</w>
opini on,</w>
gi o</w>
Compan y.</w>
pur ple</w>
ori es,</w>
al tered</w>
inv ented</w>
bit ter
po or,</w>
8 8
car bon</w>
sinc er
exp ensive</w>
tra ffic
wid er</w>
h e.</w>
K IN
V I</w>
I .
success or</w>
_ s._</w>
G A
intro duce</w>
sit e,</w>
4 3
comple tion</w>
th '</w>
Bar cel
conf ess</w>
inher ited</w>
Antar c
an a
J ay
sail ing</w>
wi de.</w>
" Le
level ,</w>
pro xim
Boo k
enter tainment</w>
School s</w>
fail ing</w>
bre aks</w>
ber t,</w>
Pro c
sla ugh
cla y</w>
period s</w>
pl es.</w>
par l
conven ient</w>
I B
var ying</w>
Cath edral</w>
ge -
n ig
graphi c
subjec t.</w>
Que bec</w>
inj ur
Psy ch
al e
Br us
O ld
t en,</w>
mu d</w>
lin ing</w>
el and</w>
autum n</w>
i re
apart ment</w>
magne tic</w>
" Are</w>
ch at
al liance</w>
mon th,</w>
Hou ston</w>
judg es</w>
corrup t</w>
Camp bell</w>
ri es,</w>
Or ange</w>
pre mis
f und</w>
ar is
dom ini
v ary</w>
under ground</w>
answ er.</w>
war ned</w>
they 're</w>
Tor on
100 0</w>
repe at</w>
camp ,</w>
sha ke</w>
pun ish
believ ing</w>
l ingu
Way ne</w>
se t.</w>
sha l</w>
j ol
Chic ago,</w>
d un
JO H
own ership</w>
Lif e.</w>
ra ys</w>
renew ed</w>
I mp
kind ness</w>
Gu ide</w>
H em
si zed</w>
rec all</w>
ret t</w>
ru ins</w>
rec eption</w>
sam e,</w>
thi op
Bo ys</w>
199 5.</w>
Oper a</w>
deb t</w>
siz e,</w>
der ive</w>
pre li
H od
Num ber</w>
f ool</w>
ou ght
stol en</w>
instruc tion</w>
advent ure</w>
bur y,</w>
E ri
6 6</w>
abil ity.</w>
par ted</w>
tal ent</w>
Dis cograph
( US
manif est
Techn ical</w>
liter ally</w>
ma il
Ad ol
B ack</w>
L ock
15 7
196 1</w>
inhab ited</w>
tar get
ke y.</w>
inc ar
provinc es</w>
Sax on</w>
gu est
boo ks.</w>
co g
town ship</w>
é s</w>
it y"</w>
st age,</w>
Bur n
ak e,</w>
wor th,</w>
T ou
S ound
R ight</w>
Addi tionally,</w>
Pres s.</w>
Am end
ar -
eat en</w>
N y
at ri
employe e</w>
8 00</w>
E E
ch en</w>
mar ble</w>
rest ra
2 5.</w>
M ind
ric ane</w>
corpor ation</w>
emerg ency</w>
restor ation</w>
Demographic s.</w>
sent enced</w>
sc ar</w>
signific ance</w>
bur den</w>
precis ely</w>
F ic
qu er
Mau rice</w>
to ols</w>
Ber lin
air e</w>
enough .</w>
legisl ative</w>
P ut
complet e,</w>
pass ed,</w>
sun k</w>
vers ity</w>
Tr inity</w>
low .</w>
beh ind
Gu y</w>
z e.</w>
ru le,</w>
Clevel and</w>
ear ne
M end
Card inal</w>
( un
b los
ish ops</w>
liqu id</w>
frequ ency</w>
b s,</w>
ac he
compani ons</w>
P ast
em igr
_ :</w>
"P o
resul ts.</w>
fl an
La ura</w>
nin th</w>
regre t</w>
tr un
t us</w>
pre ne
sm ,</w>
er ,"</w>
distinc tly</w>
us ."</w>
Robin son</w>
as sic</w>
Scot land,</w>
ap ost
Cur ren
boy s,</w>
Bab yl
gri ef</w>
refu ge
  c
n ation,</w>
sol ar</w>
c able</w>
son s,</w>
S l
bott le</w>
hour .</w>
p ound</w>
burn t</w>
acc us
beaut y,</w>
L em
Priv ate</w>
( 3
said ;</w>
it y's</w>
a is</w>
K as
S eg
f lood</w>
dis k</w>
part s,</w>
norm ally</w>
ge omet
R ome
50 1
ev ent,</w>
amm uni
H ag
F em
M ey
cer tific
organ ised</w>
gu ided</w>
domin ated</w>
func tion
Ter ry</w>
re fresh
thou se</w>
re form
refu ge</w>
fru it
electric al</w>
ec e</w>
gli mp
TH E
mast ers</w>
ab road</w>
sensi tive</w>
F ar</w>
Bo ston,</w>
ref us
pain t</w>
Fin ally,</w>
oc ol
ball .</w>
app ing</w>
Leagu e,</w>
Gu it
ci a</w>
Cra w
fashi on
own er,</w>
w in,</w>
ap t</w>
Ch el
what 's</w>
e ast,</w>
Th rough
==== ====
hop e,</w>
iz es</w>
sist ers</w>
al ign
p ack</w>
s ounded</w>
R ag
K ate</w>
ak h
win ners</w>
Dec ember,</w>
g y
_ S
erb ai
ac company</w>
ran king</w>
swim ming</w>
member s,</w>
195 8</w>
al ys
K ent</w>
read y,</w>
195 2</w>
remov al</w>
re ll</w>
Con fer
Iow a</w>
Colleg e.</w>
ver sus</w>
wa ke</w>
F arm
jum p</w>
194 6</w>
the ater</w>
min al</w>
Pres by
colum ns</w>
guitar ist</w>
Stu art</w>
ev acu
ud i</w>
Kent uck
promis ing</w>
Finn ish</w>
= ,</w>
experim ental</w>
Comm and</w>
Fam il
Sta ff</w>
r ate,</w>
retur n,</w>
res ses</w>
tim e;</w>
re mark</w>
marri age,</w>
are as.</w>
( 10
Ne ither</w>
op ter
where in</w>
Ma xim
K ings</w>
restric ted</w>
Liver pool</w>
stor age</w>
_ --
W ere</w>
M ER
h its</w>
b red</w>
195 9</w>
ship 's</w>
r ous</w>
win d,</w>
Sh all</w>
25 0</w>
L ane</w>
grand father</w>
Rober t
ati ves.</w>
in er
ic a,</w>
S o,</w>
ed a</w>
right -
E c
identi fy</w>
d well</w>
ne th</w>
Az erbai
C ran
C S
bl ack,</w>
Jacqu es</w>
offic ers,</w>
o h,</w>
flo or.</w>
ga ze</w>
spon sored</w>
knowle dge,</w>
Bow l</w>
hi p</w>
2 2.</w>
Singap ore</w>
effec tively</w>
194 0</w>
w ere
bo ys
youn g,</w>
cl ude</w>
Ser bian</w>
sever ely</w>
T ham
observ ations</w>
Orig inal</w>
stud ents.</w>
refl ect</w>
We ek</w>
li a</w>
G .
n essed</w>
interpret ation</w>
lo yal</w>
for th
resem bl
invol ves</w>
M ong
al pha
20 %</w>
Mar y,</w>
(c )
mist ress</w>
flo ating</w>
Four th</w>
te e
pol og
Ped ro</w>
L A</w>
Artic le</w>
Mar ch
_ A
W N
conven tion</w>
dre ams</w>
qu ad
pi erc
sum mar
champi ons</w>
ani ,</w>
b orders</w>
( 1</w>
P att
p seud
ac ,</w>
Au di
in ated</w>
def ec
Wor k</w>
cou ples</w>
1 "</w>
er ed,</w>
Joh ann
trium ph</w>
v y</w>
Car ter</w>
bl ast</w>
ac qui
ex agger
mou th
pursu it</w>
adv ancing</w>
un expected</w>
an ic</w>
c ub
edi tion.</w>
" [
.-- The</w>
tit le.</w>
ou stic</w>
15 00</w>
clas s,</w>
( 13
conc eiv
Elec tr
Abra ham</w>
foo t,</w>
ob sol
ta "</w>
ru in</w>
ard -
ab ad</w>
m "</w>
clo thing</w>
vi br
clim bed</w>
cle ver</w>
addi tions</w>
' tis</w>
person ality</w>
fil med</w>
stret ch</w>
asham ed</w>
Res id
S ant
coll ect</w>
resid ing</w>
c odes</w>
1 20
los ses</w>
aff lic
direc tion,</w>
exhi bit</w>
afterno on,</w>
199 4.</w>
di e,</w>
show .</w>
exper t</w>
reve als</w>
re pair</w>
remov ed.</w>
tru th.</w>
Cari bbe
Nor way</w>
Res our
club ,</w>
song writer</w>
mov ement,</w>
UE FA</w>
mon it
occup y</w>
arm ies</w>
countr y's</w>
ic es</w>
o ",</w>
G E</w>
Chron ic
Majest y</w>
simul tane
p ink</w>
L es</w>
Lov e"</w>
hol low</w>
195 7</w>
den se</w>
voic ed</w>
surr ound
rest ing</w>
Commission er</w>
f old</w>
194 1</w>
des ol
pa used</w>
desig n,</w>
Ber kel
8 /
un anim
er a.</w>
pit ch</w>
se am
schol ar</w>
flow ers,</w>
sh alt</w>
cra w
adap tation</w>
test ing</w>
ul ations</w>
reser ved</w>
Dubl in</w>
am a,</w>
whol e,</w>
"D id</w>
Mont gom
gra in</w>
pl ing</w>
trem bling</w>
auth or,</w>
Ur ban</w>
SI G
c att
Ne il</w>
Vinc ent</w>
car go</w>
S elected</w>
lux uri
determin ation</w>
re venue</w>
In stead</w>
Champion ship.</w>
tim e
Val ent
Cap ital</w>
16 5
Cri tical</w>
L ist
evol ution</w>
G ill
Gil bert</w>
G -
pi ti
proper ty,</w>
rec o
satis fy</w>
Sul liv
Athle tic</w>
la yer</w>
quali fying</w>
501 (c)
p ush</w>
forc e.</w>
mar i
proble m.</w>
195 0</w>
chest er,</w>
point s.</w>
Slo ven
refer ring</w>
Industri al</w>
S au
at tained</w>
instrum ental</w>
cultiv ated</w>
D ance</w>
posi tion
answer ed.</w>
ul timate</w>
il e
Ex pres
d it
w all.</w>
Tran sport</w>
con tain
W right</w>
c auti
Cham ber</w>
anim als,</w>
Ar t
— the</w>
en ne</w>
gir l.</w>
spe ak,</w>
N ES
da y;</w>
G R
circ ular</w>
estim ate</w>
Philipp ines</w>
bat tery</w>
9 5</w>
ed s.</w>
am ph
R ever
Hear t</w>
H ul
chief ,</w>
ou tr
co .</w>
sub stitute</w>
S ite</w>
Def ence</w>
no ti
ali ke</w>
long est</w>
us ",</w>
193 9</w>
l amp
L ag
bo y.</w>
Brow n
b oot
Sing les</w>
ann ually</w>
mat ri
bil li
Represent ative</w>
cho os
loc ality</w>
Rep ort</w>
y o
ke ys</w>
Bro o
Div ine</w>
M ang
di ed.</w>
H ence</w>
Ad vis
aw k
Not es</w>
7 ,
wa ys
deal t</w>
Counc il,</w>
Fac ulty</w>
desc ent</w>
Tur key</w>
care ,</w>
th en.</w>
s wif
Ot ta
ari o</w>
n iv
represent ations</w>
í n</w>
s mi
Di ocese</w>
Cur rent</w>
fear ,</w>
Wal es,</w>
Univers al</w>
Philipp ine</w>
transi tion</w>
a be
hand ker
Sy ri
[ =
Soci alist</w>
sk el
P ick
an a.</w>
ut t
circu it</w>
Bur g
gall ery</w>
sec tor</w>
tu be</w>
Lab or
p om
Ty pe</w>
De ut
as sign
Baltim ore</w>
B ishop
" if</w>
Con struction</w>
Wed nes
mu ch.</w>
Cent ury</w>
appro ach
Ad ri
Cent er,</w>
bac ks</w>
char m</w>
exper iment</w>
for .</w>
sha me</w>
ure d,</w>
Pro duction</w>
particip ation</w>
comm enc
wel com
pos ing</w>
gover n</w>
bre ast
Gi ve</w>
attack .</w>
effec t.</w>
rout es</w>
undou bt
cour tes
y ing,</w>
chron ic
at t</w>
Mo z
lo b
col ors</w>
"H ist
ant agon
W O
mal es</w>
Sh ang
re ;</w>
wra pped</w>
scri bed</w>
T ob
chi l
Lab or</w>
fore ign
K en</w>
arm y.</w>
wi ki
Bapti st</w>
origin ated</w>
emin ent</w>
one ."</w>
o a</w>
m pi
N early</w>
controvers y</w>
y ).</w>
ou c
voc als,</w>
D NA</w>
198 9,</w>
consequ ences</w>
G ot
encour age</w>
199 2.</w>
some body</w>
wall s,</w>
ne uro
trac es</w>
rac es.</w>
p in</w>
Mor ris
t une</w>
Cam bri
194 7</w>
Y ears</w>
An y
peac eful</w>
T at
conserv ative</w>
i ans,</w>
happ ens</w>
Champi on</w>
sing le,</w>
consul t
P os
ell i</w>
Municip al</w>
Sy l
CE ,</w>
Fil ip
sa x
fl ash</w>
streng th,</w>
fin ite</w>
S lov
" "
Jus tic
occasi on,</w>
Cop y
Z im
me ?</w>
sha king</w>
el e
Jerusal em</w>
s its</w>
S R</w>
id ated</w>
Tu es
hor n</w>
Holly wood</w>
pow der</w>
$ 5
— —
ch al
u vi
Child ren</w>
po em
ab use</w>
Flo rence</w>
Z h
k m²
fut ure.</w>
R is
soldi ers,</w>
che ap
with .</w>
down town</w>
forc ing</w>
encoun tered</w>
grac eful</w>
s na
fear ful</w>
thre sh
company 's</w>
olog ies</w>
s ,--
first- class</w>
Sour ces.</w>
H og
Le av
D ru
b ounded</w>
1/ 2</w>
15 6
twenty- five</w>
Jeffer son</w>
! )</w>
th "</w>
on es.</w>
N ick
L ot
pro to
cop al</w>
tre es.</w>
R abb
r ude</w>
ti ght</w>
min i
op ens</w>
cal led,</w>
8 vo
demonstr ated</w>
"A n</w>
ail ,</w>
experi ence,</w>
summon ed</w>
M ou
P ref
Bri st
IT Y</w>
bu c
wret ched</w>
T ac
Cric ket</w>
d us
E d</w>
mass es</w>
ap s</w>
Through out</w>
J eff
sp ell</w>
eag er
_ ).</w>
pup ils</w>
compet ing</w>
gard en,</w>
judic ial</w>
y pe</w>
program .</w>
post s</w>
a ’s</w>
sett lers</w>
er ia</w>
be ing,</w>
Man hatt
legi timate</w>
an ;</w>
ner 's</w>
F ood</w>
In ternal</w>
rec over</w>
pl ates</w>
501(c) (3)</w>
inc ap
A h,</w>
s well
effor ts,</w>
sli p</w>
inspir ation</w>
obsol et
su ited</w>
Le o</w>
encour ag
tur n,</w>
elabor ate</w>
L OR
dead ly</w>
Al liance</w>
struggl ing</w>
Man u
mar tial</w>
L AN
phos ph
ev es</w>
head quar
fast ened</w>
en ed,</w>
] ]</w>
ure r</w>
sp an</w>
" is</w>
S ay
cle ar,</w>
manufac tured</w>
po et,</w>
enni al</w>
Moun tains</w>
" O</w>
trans m
12 0</w>
follow ers</w>
Tog e
Leg islat
appre hen
re duction</w>
sa ,</w>
Found ation.</w>
dec om
195 5</w>
mon d,</w>
Counc il.</w>
sur render</w>
mag nit
ha ve
spar k
sh ot
Montre al</w>
CH AR
sol itary</w>
ac on</w>
let ters,</w>
Mediterran ean</w>
f antas
an- American</w>
I d
Lu x
Con temporary</w>
compu ters</w>
199 3.</w>
sc ha
cric ket
T il
D )</w>
affili ated</w>
" Se
da wn</w>
bet ter,</w>
m our
Mem bers</w>
b ric
sh ru
ap pla
ru st
E D</w>
le ft.</w>
7 6
sp ace,</w>
g ate,</w>
B om
S ide</w>
concent ration</w>
as !</w>
Hind u</w>
benef its</w>
tel evisi
Fel low</w>
I A
Ma thematic
ty ran
( "The</w>
" Per
cou ld,</w>
sam e.</w>
p enc
wides pread</w>
h -
Al lied</w>
Pun j
Cav al
US S</w>
sil ence.</w>
dest ined</w>
devic es</w>
Con tribu
Wind ows</w>
wan ting</w>
dang er
8 5</w>
st ain</w>
Club ,</w>
m id</w>
igh t.</w>
N ash
p um
Cl er
Pet ro
K ath
corpor ate</w>
vill ag
Soci et
er ’s</w>
no ble
st uck</w>
Ba y,</w>
t enth</w>
su me</w>
7 2</w>
In spec
di m</w>
engag ement</w>
Lo ren
ext ends</w>
gre at,</w>
edg es</w>
tend er
vers es</w>
struc ture.</w>
o si
sp er
"H e
du ke</w>
tor ped
m ourn
counten ance</w>
g es
Le ic
lof ty</w>
g old
Jon es,</w>
attrac tive</w>
mov ement.</w>
g e.</w>
" Ex
spo ts</w>
( 6
conqu ered</w>
l on</w>
requ est,</w>
.org .</w>
resp ond</w>
S ik
G lad
Langu age</w>
FI FA</w>
J ay</w>
_ n
i ri
Tex as,</w>
C um
ect ed,</w>
dis cour
practic es</w>
Discograph y.</w>
bl ess</w>
Ir an</w>
pre ach
V I.</w>
tre ach
ov ,</w>
world wide</w>
exclaim ed,</w>
War ner</w>
Brow n,</w>
horri ble</w>
ab out.</w>
ori es.</w>
sir .</w>
jo int
2 3.</w>
Constant inop
sh ell
hast ened</w>
sil ence,</w>
il legal</w>
direc tion.</w>
l ing.</w>
Dar k</w>
that ,"</w>
o ;</w>
di m
S ey
insul a</w>
heal th
19 18</w>
( 9
inv it
smil e.</w>
st er.</w>
" En
U ~}{~GREEK</w>
ques tioned</w>
Mar ri
fund ed</w>
answ er,</w>
ing- room</w>
D ennis</w>
_ ]</w>
dro ps</w>
P ack
wr ought</w>
techni que</w>
Mexic o.</w>
melanchol y</w>
ra w</w>
ther more,</w>
Er nest</w>
est one</w>
ati ve
Thi s,</w>
citiz en</w>
ac tion
mo tion
Studi o</w>
minist ers</w>
. '"</w>
necess ary,</w>
neighbor ing</w>
diplom atic</w>
el der
B eij
re fin
o ked</w>
199 0s</w>
e ’s</w>
ing ?</w>
-- you</w>
c ord
M E</w>
ver te
el se.</w>
novel s</w>
"H ave</w>
Cul ture</w>
Jan uary,</w>
al ised</w>
cy c
ga zing</w>
par t.</w>
p unc
"S u
ol o</w>
rati o</w>
to-mor row</w>
ch an
a unt</w>
Mi x
no twithstanding</w>
en :</w>
w ig
sol ely</w>
tremend ous</w>
-- not</w>
A. D.</w>
li kes</w>
Goth ic</w>
subm it</w>
other 's</w>
cl ing</w>
gard ens</w>
Se bas
consci ence</w>
B omb
at er
succ essive</w>
psy chi
P rest
e j
g one.</w>
produc tion.</w>
e tern
199 0.</w>
qu it</w>
f all,</w>
"J ust</w>
that ?"</w>
Pho eni
on ,"</w>
I’ m</w>
( 5
techni ques</w>
sh one</w>
Hen ri
E thiop
O .
ure d.</w>
ver tical</w>
no wiki
vo id</w>
emplo y</w>
i. e
an ed</w>
Wrest ling</w>
coff e
war ran
moun t</w>
jud ged</w>
l ucky</w>
cor di
ori th
Luc y</w>
fe ather
influ ences</w>
ming led</w>
fin al.</w>
Ama z
y on</w>
You "</w>
mod ern
S cre
ho l</w>
bit ing</w>
F ather
Card in
appear ance.</w>
audi o</w>
Alab ama</w>
team 's</w>
appear s,</w>
John 's</w>
h ated</w>
et ta</w>
K ab
fa thers</w>
ec k</w>
fr ame
v ap
G et</w>
il e,</w>
propri et
pass ages</w>
I F</w>
Bro thers</w>
7 9
constitu ency</w>
mountain s,</w>
ant ly,</w>
ovi ć</w>
Quar ter
L ,</w>
el "</w>
dis position</w>
" At</w>
cor rid
t ent
D ON
tic ul
ill umin
reve al</w>
00 .</w>
y ach
es sions</w>
C all
R &
con version</w>
Ac tion</w>
(? ),</w>
BI LITY</w>
tru e.</w>
Mi ami</w>
d ried</w>
’ ll</w>
" Tr
Stat e.</w>
g ar,</w>
na ked</w>
B ent
clim b</w>
be st-
behavi or</w>
can al</w>
7 :
" Par
@ pglaf
and /
coun sel</w>
V es
rejo ic
pat ched</w>
min es</w>
dec ad
ly n
"B y</w>
rul es,</w>
Febr uary,</w>
195 4</w>
custom s</w>
supp er</w>
194 9</w>
at ely.</w>
tre ating</w>
ati v
2 4.</w>
k al
Brit ain,</w>
Rom anian</w>
trav ag
p et</w>
collec tions</w>
Orle ans</w>
ur rec
percent age</w>
termin al</w>
Th orn
Su ff
ban k,</w>
den omin
Ray mond</w>
prob ability</w>
pro -
w ives</w>
cop e</w>
I G
R iv
conf ig
no tor
eligi ble</w>
v ow
I P
cri es</w>
gover ned</w>
( such</w>
Stand ard</w>
S W
ne vertheless</w>
L un
Lou ise</w>
lif ting</w>
Gre g</w>
tran sportation</w>
s ag
cost um
te -
B S</w>
symptom s</w>
I van</w>
Con f
M ON
tr uc
Direc tor
search ing</w>
Elec tric</w>
L '
Au st
F light</w>
There fore</w>
rang ing</w>
é n
an e
l uck</w>
E ur
Indi ans,</w>
less ons</w>
199 1.</w>
car ,</w>
nam ely,</w>
P G</w>
Bri tish
small est</w>
Th re
trust ed</w>
indi genous</w>
umb ent</w>
Common s</w>
satisfac tory</w>
manuscrip t</w>
specim en</w>
ure ;</w>
gi ous</w>
ligh ting</w>
st age.</w>
Franc es
sovere ign</w>
Isa ac</w>
Bet ty</w>
z er
rob ber
Arn old</w>
some how</w>
trac ed</w>
Brun sw
T .
es is</w>
ough t,</w>
ony m</w>
stre ams</w>
dat a,</w>
conn ect</w>
hop ing</w>
b apti
integr ated</w>
shi ft</w>
au ght</w>
195 3</w>
author ized</w>
Co .,</w>
atten tion.</w>
ear s,</w>
law s,</w>
tex ts</w>
Bo hem
hor e</w>
favour able</w>
sa w
o bey</w>
sc hi
W id
inher it
tit le,</w>
._ )</w>
F eli
ff .</w>
Ark ansas</w>
C T</w>
v et
Co -
insur ance</w>
attac king</w>
vo y</w>
vil la
domin ant</w>
open ly</w>
le )</w>
sk ills</w>
dro pping</w>
num ber,</w>
ric e,</w>
Brus sel
produc tive</w>
sym met
spl end
neighbour hood</w>
T S
sleep ,</w>
al lo
your self
dinn er,</w>
wonder ing</w>
pla in,</w>
C ris
Or chestra</w>
char ter</w>
e. g
res ist</w>
nur se</w>
- year-old</w>
Aus tin</w>
form s,</w>
al t
$ 1</w>
competi tive</w>
si ght.</w>
Rich mond</w>
cal end
Auth ority</w>
Trans l
( 12
t ank</w>
log ical</w>
br u
http s
Mos es</w>
prin ting</w>
si ve,</w>
in fring
Connectic ut</w>
https ://
tel ephone</w>
su it
Comp uter</w>
mon s</w>
Oly mpi
Sul tan</w>
station ed</w>
som e,</w>
susp ect</w>
Q .</w>
con j
kne es</w>
scop e</w>
re nov
ment ;</w>
bre eding</w>
l um
v ague</w>
Can ter
tot ally</w>
3 0.</w>
anch or</w>
servic es,</w>
tod ay.</w>
Mo del</w>
and/ or</w>
Al g
cam era</w>
T us
an nex
bir ds,</w>
Ag ency</w>
O h!</w>
f itting</w>
nut ri
den .</w>
don ated</w>
bet ter.</w>
expla ins</w>
ah .</w>
ech o
Que bec
on i</w>
ep .</w>
Vari ous</w>
fe et
"Wh at's</w>
sl ender</w>
diff er</w>
.. ."</w>
Cham ber
w ool
frag ments</w>
us _</w>
av er</w>
diam eter</w>
fron t,</w>
lan throp
bel t</w>
You Tu
ch er,</w>
civil ian</w>
Th ere,</w>
retur n.</w>
to s</w>
collec tion.</w>
rebel li
Fin anc
as :</w>
de "</w>
Z i
e or
prepar ations</w>
op hy
found .</w>
e i</w>
St ef
confir mation</w>
A ub
cr ack
fran k
inv isi
wit nessed</w>
com edi
kin '</w>
bus h</w>
Gr ade</w>
con grat
appeare d.</w>
gi fts</w>
abund ant</w>
p add
increas es</w>
harm less</w>
r ut
Hon ours.</w>
struggl ed</w>
maj est
ac les</w>
C ook</w>
se eds</w>
develop ment,</w>
m atic</w>
bel ow
G en.</w>
hard ,</w>
mer ry</w>
predec ess
cros ses</w>
se vel
ist s.</w>
192 0</w>
a z</w>
in e-
English .</w>
195 1</w>
C up,</w>
par all
li ps,</w>
hun t</w>
o :</w>
H ast
Juli a</w>
pric es</w>
Man uel</w>
193 6</w>
is ha
gar rison</w>
sc rat
tr ump
shi pped</w>
has tily</w>
in ous</w>
compreh ensive</w>
Par ty.</w>
life ;</w>
f um
he ard,</w>
bl y.</w>
edi a</w>
Mar y's</w>
me ters</w>
Armen ian</w>
r ounded</w>
ll ,</w>
LI E
ain e</w>
Ro b</w>
Ed die</w>
undoubt edly</w>
restaur ant</w>
sy ll
H ai
Col .</w>
swi ft</w>
sk a</w>
person ally</w>
or ;</w>
Hud son</w>
ed e</w>
Pittsbur gh</w>
( later</w>
Chi ld</w>
A .,</w>
inv itation</w>
dis cer
Vienn a</w>
ti d
hum ans</w>
His panic</w>
. —
leg end</w>
devo tion</w>
cent ,</w>
administ ered</w>
can n
cor ps</w>
Ap pe
cab inet</w>
Origin ally</w>
Gl ouc
convic ted</w>
clerg y
y a,</w>
gall ant</w>
effec t,</w>
gentle man,</w>
op pres
de fi
' d,</w>
comp ati
desig ner</w>
gal lo
writ ing,</w>
shad ows</w>
wind ow.</w>
build ings,</w>
inaug ur
198 7,</w>
Is land.</w>
rac es,</w>
shad ow
s occer</w>
communic ations</w>
Cour t,</w>
fol ks</w>
universi ties</w>
ut es</w>
Contro l</w>
be am</w>
bro ok</w>
pre f
acqu ire</w>
im ir</w>
track .</w>
S emin
H ills</w>
I M
roc ky</w>
ver ing</w>
Ir anian</w>
exclu sion</w>
g ros
to il
farm ers</w>
Gra y</w>
make up</w>
fl ame</w>
sentim ent</w>
k k
198 8,</w>
us eless</w>
competi tion.</w>
kin s,</w>
furn iture</w>
club .</w>
after wards,</w>
Gir l</w>
ht m
Fron t</w>
rem n
f ears</w>
li er</w>
no on</w>
ph a</w>
record .</w>
in a
cont ested</w>
f os
aut onom
Ma har
Cra ig</w>
thro polog
"N ow,</w>
qu it
A BC</w>
sbur g,</w>
F air</w>
col ours</w>
speech ,</w>
nomin ation</w>
cr ash</w>
circumst ance</w>
preli minary</w>
,00 0,</w>
Ex per
RO M</w>
an o,</w>
ignor ance</w>
l oud
Sym phony</w>
deser ted</w>
L az
os "</w>
cri mes</w>
U N</w>
revol ution</w>
Distric t.</w>
r ush
cont ent
emp ire</w>
list .</w>
ne y.</w>
lin ear</w>
Bak er</w>
U g
tur b
B A
"You 're</w>
ic ian</w>
con fin
pat ent</w>
ab ide</w>
Hop e</w>
int ent</w>
parliam ent</w>
des pair
Pennsylvani a,</w>
. .</w>
imag ined</w>
Angel es,</w>
con sent
M ist
stol e</w>
br ass</w>
ous ;</w>
( 8
pro claimed</w>
Ber g
Rel ease</w>
scar ce</w>
Le gi
contin ental</w>
Philosop h
Lloy d</w>
." --_
Com mer
Fri day</w>
ab sent</w>
es sion.</w>
jurisdic tion</w>
v ali
Encyclo pedi
c ook</w>
ut e,</w>
gradu ating</w>
M e"</w>
"T im
V id
itt ed,</w>
lor d,</w>
C ic
dec ides</w>
ros e,</w>
perc eive</w>
in scrip
i 's</w>
Comp any
Goo gle</w>
” .</w>
Ben edic
oper ative</w>
separ ation</w>
Associ ation,</w>
batt le.</w>
P ly
T H</w>
wi g</w>
Club .</w>
li ability</w>
us '</w>
lo st.</w>
Can al</w>
Medic ine</w>
enthusias m</w>
op tion</w>
_ d
S po
initi ated</w>
ru ined</w>
dep ths</w>
b ak
li e,</w>
201 9</w>
Russi a.</w>
00 ,</w>
6 2</w>
wa re
vo ting</w>
sk i,</w>
fr ac
S ang
dou ble-
sh ep
ex travag
R ick</w>
hear ted</w>
lam p</w>
cas h</w>
dut y,</w>
farm er</w>
classi fication</w>
G mina</w>
concent rated</w>
prohi bition</w>
_ "</w>
revol utionary</w>
ri p
st ress</w>
Sudden ly</w>
ir .</w>
Sh ould</w>
plan et</w>
Li euten
Par ker</w>
al ity
n ation.</w>
it :</w>
thro at</w>
Grou p,</w>
Leon ard</w>
K ell
veng e
Roo sevel
sid es,</w>
figh ter</w>
In divid
US E</w>
(200 6)</w>
ir on
ty ;</w>
market .</w>
-- as</w>
Carol ina,</w>
ter "</w>
clam ation</w>
particul ar,</w>
est -
( c.</w>
b ach</w>
sa w,</w>
l er.</w>
Su z
Buddhi st</w>
M igu
tal ks</w>
ail ed</w>
sp ace.</w>
int end</w>
trac t</w>
Hou se.</w>
says :</w>
Dor othy</w>
ch r
adop t</w>
Argent ine</w>
sw ung</w>
man ner
Dis ney</w>
_ P
on d,</w>
cig are
repl y.</w>
s nat
r ing,</w>
t ended</w>
fru its</w>
marg in</w>
ir o</w>
Hor se</w>
acc eler
No te</w>
conqu est</w>
ly ."</w>
R on</w>
alis m,</w>
v ag
J ak
cor d</w>
far -
dre ad</w>
element ary</w>
leg end
Presby ter
F all</w>
Bu en
requ iring</w>
sent ence,</w>
fortun ate</w>
after ward</w>
arg uments</w>
wh y,</w>
h en</w>
curi osity</w>
light ly</w>
trou bl
w ond
( 183
hi er
cler k</w>
St even</w>
um a</w>
dis charge</w>
tradi tions</w>
ves tig
t age</w>
S .,</w>
Ne ar</w>
Z am
batt le
tu ous</w>
stop ping</w>
in form</w>
0. 0
sk ill
M N
s ing,</w>
Me th
l er's</w>
comple ting</w>
stitut es</w>
be ings</w>
rul er</w>
out put</w>
es 's</w>
"T w
Des ign
fe ast</w>
lat eral</w>
(200 7)</w>
amoun ts</w>
even ing.</w>
satell ite</w>
00 0</w>
N ancy</w>
M ans
Environ mental</w>
ass ess
J on</w>
don ation</w>
impul se</w>
es h,</w>
ingu ished</w>
Kr ish
Egyp t,</w>
contribu te</w>
un conscious</w>
AC T</w>
Second ary</w>
maid en</w>
Again st</w>
commun ity,</w>
T OR
releas e,</w>
ori ent
mission ary</w>
run ner
Cong ress,</w>
que er</w>
F erg
Associ ation.</w>
him :</w>
app ren
ili ties,</w>
Is le</w>
de pres
s ends</w>
6 3</w>
per s,</w>
es a</w>
,-- the</w>
travel ing</w>
Record s,</w>
' er</w>
grad es</w>
sk y
trad ed</w>
war s</w>
commer ce</w>
r y's</w>
nec k,</w>
B achelor</w>
A str
"A h,</w>
bu ck
to- day,</w>
shor ter</w>
sk y.</w>
out break</w>
per ple
N one</w>
Can 't</w>
Organi zation</w>
Gent le
h ind
O ber
ac ious</w>
autom atic</w>
Anti -
able ;</w>
gu ards</w>
str ation</w>
re ward
activi ties.</w>
Uni on,</w>
9 9</w>
bar k</w>
A x
19 17</w>
business es</w>
Ex p
di verse</w>
Har rison</w>
sem i
renow ned</w>
in directly</w>
Si erra</w>
el se,</w>
"L ove</w>
E -
K om
mod est</w>
id s,</w>
tom b</w>
troop s,</w>
id el
Bri ght
Liter at
th ed</w>
"V ery</w>
jeal ous
gen etic</w>
desir able</w>
I D
he 'll</w>
198 6,</w>
Wor c
ig no
O T
Stud y</w>
t all
m ati
I T</w>
F. C.</w>
con stra
W arri
dr ink
star ing</w>
or chestra</w>
R af
Arab ic</w>
Ex press</w>
wand ering</w>
mat e,</w>
daugh ter
W ool
c ran
cover age</w>
lat e,</w>
lo g</w>
qu est</w>
encoun ter</w>
t ests</w>
descend ants</w>
Stud ent</w>
d ess</w>
fe ud
legi ate</w>
p ast.</w>
( "S
film )</w>
batt les</w>
Ge off
Bo x
s ound,</w>
ol ic</w>
Mon day</w>
ing ?"</w>
dis c</w>
G y
it an</w>
c ali
qu e.</w>
v ex
g em
op hon
p es
c ure</w>
end emic</w>
Rom e.</w>
P har
fro m.</w>
ri ch,</w>
est yle</w>
an e,</w>
ac tor,</w>
j aw
6 5
sh out
mil d</w>
trad e,</w>
li vely</w>
he ir</w>
del ayed</w>
Shi r
ant ly.</w>
Rom ans</w>
f ow
Mitch ell</w>
heav en,</w>
dres s,</w>
S anti
ecclesias tical</w>
franchi se</w>
cour t.</w>
an tic</w>
Rac ing</w>
t ables</w>
con jec
CH AN
Divisi on,</w>
perc eiv
husband 's</w>
tri gg
aston ished</w>
c on</w>
literat ure,</w>
S ett
mat ch,</w>
direc tor
Cir cu
oo t</w>
reduc ing</w>
public ations</w>
( New</w>
C C</w>
r att
land )</w>
aband on
Georg e,</w>
I ce</w>
198 9.</w>
6 1</w>
event h</w>
expos ure</w>
fe eding</w>
rel s</w>
Dr um
re tor
win e,</w>
advertis ing</w>
speak er</w>
emphas is</w>
is land.</w>
respec ting</w>
ing ",</w>
controversi al</w>
nephe w</w>
F ace
ri bb
correspond ence</w>
sh allow</w>
fish er
pres ti
B S
industr y,</w>
en light
os a</w>
co st,</w>
Kingdom .</w>
camp .</w>
( a)</w>
cre pt</w>
secre tly</w>
gun s,</w>
consci ous
struc ture,</w>
Ma ke</w>
"No ,"</w>
Gre at
198 0s,</w>
r ack
" k
stat es,</w>
s itt
scen e,</w>
dis band
Count ess</w>
hi de
play er,</w>
G ang
comp ound</w>
men tions</w>
co ast,</w>
D ud
fe wer</w>
Vic e-
st ad
polic ies</w>
U S.</w>
Be th
di um</w>
P LE
sor row
C ould</w>
, 0
compon ent</w>
id le</w>
Un less</w>
bank rup
t ly.</w>
ac ity</w>
F ,</w>
Ple as
hu a</w>
alco hol
off -
Mul ti
Collec tion</w>
hol ders</w>
Pri ce</w>
Atl anta</w>
is on,</w>
S occer</w>
enc e"</w>
public .</w>
ed ?"</w>
go w</w>
pra yers</w>
as s.</w>
bu re
mat ch
Ev ans</w>
contem por
v et</w>
Ar t,</w>
T W
Fur thermore,</w>
u z
distribu tion.</w>
popul ation,</w>
strong est</w>
vari eties</w>
t all,</w>
ent "</w>
o ak</w>
K are
is ms</w>
exc ess</w>
RA F</w>
ver y,</w>
daugh ter.</w>
eas y.</w>
the ories</w>
re aliz
li me</w>
ob tain
distinc tive</w>
ac oustic</w>
trans formed</w>
An ni
s .”</w>
es se</w>
s ni
el ia</w>
e /
qu et</w>
V a
exp and
cheer ful</w>
(200 5)</w>
Pet e</w>
summ er,</w>
D R
affor ded</w>
N on-
g ymn
arti st,</w>
Still ,</w>
repeat edly</w>
sou l.</w>
o ti
manag ing</w>
fre e,</w>
elimin ated</w>
alg orith
hol d,</w>
P A</w>
res ort</w>
193 8</w>
inqu iry</w>
min e.</w>
195 0s</w>
suic ide</w>
stri kes</w>
strate gic</w>
sco res</w>
Mar ket</w>
re built</w>
ac ked</w>
calcul ate</w>
C and
wa st
let ting</w>
re verse</w>
l ung
whe els</w>
wel fare</w>
ton e,</w>
19 19</w>
W inter
w o
C ry
threat ening</w>
C AR
car .</w>
” ,</w>
_ ."</w>
H ome
monast ery</w>
Brist ol</w>
"Th ere's</w>
c ed</w>
cla d</w>
D S
ke -
pit ched</w>
or ia</w>
bre vi
th ine</w>
ap ar
th al
My ster
ly "</w>
bar bar
in dig
emo tional</w>
5 4
strateg y</w>
Dall as</w>
discipl ine</w>
weak ness</w>
T ed</w>
bar s</w>
gre en,</w>
comm ented</w>
inter section</w>
un incorporated</w>
privil ege</w>
ens uring</w>
sh ud
chief s</w>
remin ded</w>
bo tan
refl ection</w>
( formerly</w>
cl ut
attrac t</w>
ak e
mix ing</w>
prec eded</w>
K ill
Cr us
Gir ls</w>
ress ed,</w>
Artill ery</w>
deep ,</w>
Muham mad</w>
Gre y</w>
comm it</w>
tou red</w>
p enn
civil iz
star tled</w>
198 5,</w>
b ill
battali on</w>
ro s</w>
spec tr
Bran ch</w>
I mag
ad a,</w>
2 ,000</w>
le ather</w>
involv ement</w>
w ash</w>
D ame</w>
aband on</w>
Wor ks.</w>
Uni on.</w>
along ,</w>
ay an</w>
f ar,</w>
dol lar</w>
min ded</w>
F )</w>
l 's</w>
pen al
lat ter,</w>
t ent</w>
le ys</w>
incid ents</w>
direc tions</w>
u ally,</w>
qu i</w>
smil e,</w>
arbit r
tox ic
shep her
ar 's</w>
ent e</w>
novel ,</w>
La ure
wom en
Rev enue</w>
opport un
ens e,</w>
in sol
ett e,</w>
Ann ual</w>
sp reading</w>
posses sion.</w>
sur ren
death s</w>
S ask
laugh ter</w>
k ow
fiel ds,</w>
S ear
sti r</w>
Scot land.</w>
coun ties</w>
N ak
Qu ali
person s,</w>
" we</w>
M echan
TI VE</w>
enclo sed</w>
mou th.</w>
John son,</w>
,-- and</w>
bare ly</w>
for giv
bi ography</w>
honor ary</w>
harmon y</w>
pl ann
te ar</w>
vil le.</w>
dynast y</w>
P S</w>
accord ingly</w>
anc i
ur b</w>
A U
comp ass
in o,</w>
M ust
B M
sc rap
D ro
Min or</w>
w y
Har ri
fr am
br ac
Al tern
f aster</w>
G an
constitu ted</w>
om er
us e
pe ace.</w>
proceed ings</w>
km² ).</w>
ha y
l uck
agg ing</w>
fe ed
mo tive</w>
." --
Aar on</w>
trans mission</w>
A S</w>
olog ists</w>
P at</w>
enem y.</w>
S ão</w>
outw ard</w>
Gabri el</w>
S oc
cont ri
199 0s,</w>
(200 8)</w>
per son.</w>
clas s.</w>
shi eld</w>
human ity</w>
bal lo
ri al</w>
G ren
hel icop
Ab bey</w>
ne t,</w>
sa uc
repli ed.</w>
S ut
ograph y,</w>
ti fication</w>
C O</w>
out standing</w>
ver s,</w>
temp er</w>
7 7</w>
ed ness</w>
V EN
ar o</w>
b ond</w>
d ate,</w>
Cir c
un ning</w>
govern ments</w>
ro ot
accept ed,</w>
Cost a</w>
Fle et</w>
life -
al ."</w>
negoti ations</w>
Ira q</w>
publ isher</w>
im a</w>
Jr .,</w>
brig ade</w>
to b
F is
bom b</w>
det ec
Bal d
Bris ban
ne gro
B ank
ad e
us es.</w>
mann ers</w>
whit e-
re less</w>
li euten
Florid a,</w>
ch ari
that ."</w>
High er</w>
performan ce.</w>
us _,</w>
Virgini a.</w>
Sher i
u x
more over,</w>
dra fted</w>
' n</w>
es e.</w>
sequ ently,</w>
tel ep
sid ers</w>
Di x
Portug al</w>
6 4,</w>
Mc Car
st on.</w>
tw enti
mid night</w>
hous ed</w>
Serge ant</w>
re tro
" s</w>
MAR K</w>
dec ades</w>
Mo tor
Produc tion.</w>
Hol land</w>
it !"</w>
com ed
proc ess,</w>
passion ate</w>
Har vey</w>
eag erly</w>
mar k.</w>
attend ance</w>
( of</w>
se ize</w>
furn ish</w>
Freed om</w>
manufac ture</w>
el la"</w>
Mar ket
o ath</w>
J azz</w>
Ber lin,</w>
adem ois
bor n,</w>
ca use,</w>
gl ass,</w>
Ot to</w>
inc ur
hy bri
f ever</w>
settle ments</w>
T ax
6 7</w>
Ell en</w>
Marc us</w>
S ir,</w>
Se attle</w>
Tur ner</w>
report s,</w>
7 8</w>
z en
V II.</w>
Str at
wal k
mil es,</w>
f y,</w>
albu m
" X
a ided</w>
H ei
di ocese</w>
D. C.</w>
shi ll
condi tions.</w>
Revol utionary</w>
Un it</w>
de eds</w>
“ You</w>
r ings</w>
ex pi
IN DE
6 8</w>
ash .</w>
Prus sian</w>
tri als</w>
peop les</w>
hero ic</w>
seg ment</w>
op ing</w>
t e.</w>
I g
fashi oned</w>
D .,</w>
Be au
be st,</w>
al d,</w>
Par ish</w>
oper ational</w>
ash i</w>
(b )</w>
st one.</w>
assa ul
TE N
pan el</w>
ter med</w>
fl ing</w>
id able</w>
res or
great -
2 1
bil ity,</w>
me !"</w>
fic ation.</w>
er s:</w>
depic ted</w>
19 14</w>
L itt
stre am,</w>
Venez uel
Per i
Collin s</w>
incre di
un cle
usu al,</w>
ra y,</w>
oli tion</w>
H und
P ent
vel y.</w>
spr ing,</w>
dis ast
leav es,</w>
paren ts,</w>
" Car
o id</w>
earth ly</w>
' the</w>
Gall ery,</w>
respec table</w>
H os
sc an
her ."</w>
colon ies</w>
_ ),</w>
(200 9)</w>
A j
2 6.</w>
cott age</w>
Sec ret</w>
fi erc
13 0
con stitute</w>
K E
stain ed</w>
V II</w>
Brit ain
P od
sta ying</w>
market ing</w>
Li on
sa fe
acknowle dg
r ation
8 6</w>
' You</w>
"B l
hum ili
I b
girl 's</w>
Sk y
un tar
198 8.</w>
Method ist</w>
pleas ure,</w>
Ohi o,</w>
s son</w>
proce eds</w>
fortun es</w>
k night</w>
imprison ed</w>
Coop er</w>
em en</w>
cens us.</w>
slo pe</w>
Cam bridge,</w>
us age</w>
ut .</w>
G iv
system s.</w>
a use,</w>
Birming ham</w>
pi ous</w>
d war
produc tions</w>
Arm y.</w>
Gos pel</w>
193 0</w>
bo x,</w>
gl aci
squ e
sw amp</w>
sho ts</w>
dru m</w>
lo st,</w>
pione er</w>
b eds</w>
hon ored</w>
h as,</w>
Fif th</w>
L ost</w>
6 9</w>
her e."</w>
el t</w>
ang el</w>
loc ations.</w>
G B
enti ve</w>
min ority</w>
"Wh at
re tri
cut s</w>
Ferdin and</w>
p ar</w>
dat e.</w>
ma kers</w>
condi tions,</w>
ot es</w>
report edly</w>
deplo yed</w>
7 6</w>
d rank</w>
C oc
su ch,</w>
ris en</w>
H as</w>
de z</w>
less on</w>
7 1</w>
may be</w>
declar ation</w>
her itage</w>
om m
top -
Uta h</w>
Den mark</w>
O m
sho es</w>
de m</w>
man ip
tal es</w>
C N
sound track</w>
S :</w>
swe ar</w>
O thers</w>
albu m)</w>
horiz on
a !</w>
stud ents,</w>
tran scription</w>
releas e.</w>
t ool</w>
ed ly,</w>
Publ ishing</w>
song .</w>
se x,</w>
et own</w>
il 's</w>
vari ation</w>
ness ;</w>
vent ured</w>
po ets</w>
L ap
li ps.</w>
D id
fl esh
sh ells</w>
at ro
Arm y,</w>
r ington</w>
deli very</w>
Minnes o
Edm und</w>
explan ation.</w>
th us,</w>
B ase</w>
forc es.</w>
Y ale</w>
condi tion,</w>
193 7</w>
as y</w>
B ush</w>
F low
sec ur
foo d.</w>
chi ll</w>
n g</w>
mar king</w>
draw s</w>
cr iter
d ing
inf ec
e ks,</w>
differ enti
gh o
ain t</w>
Attor ney</w>
it er</w>
mon ot
9 6</w>
b es,</w>
D J</w>
tre e.</w>
objec tive</w>
slow ly,</w>
194 5,</w>
comple x
z ig
S ter
obedi ence</w>
sket ch</w>
exten sively</w>
Can adi
b inding</w>
Ambass ador</w>
promp tly</w>
cri ed.</w>
Mar ath
vig orous</w>
ac compan
a --
condi tion
D anny</w>
hat red</w>
G ou
vic inity</w>
vir g
tw in</w>
fore st,</w>
habit at</w>
s ample</w>
orda ined</w>
grou ps,</w>
prof ession</w>
sub urb
ash a</w>
ro d</w>
bi ological</w>
— and</w>
J ur
NH L</w>
re moving</w>
sou th.</w>
st ored</w>
z a,</w>
club 's</w>
Govern ment,</w>
cl es,</w>
f row
shi pping</w>
brea thing</w>
photograph s</w>
H ali
Athle tics</w>
Th at
y u
Mo on</w>
inform ation.</w>
li ve
relev ant</w>
Thom as,</w>
ste al</w>
(200 4)</w>
7 4</w>
Coun tr
contribu ting</w>
attac k,</w>
2 7.</w>
C LA
stu ff</w>
Ken neth</w>
o on
Uni versi
pl y.</w>
op ed</w>
inno c
prop he
pl as
he ed</w>
pit ch
best owed</w>
li able</w>
Ev angel
198 4,</w>
ser ge
V III.</w>
O THER</w>
politic ian,</w>
loo p</w>
ch ances</w>
bass y</w>
Nik ol
for ward
pla ins</w>
stair s,</w>
syn thes
R ick
en se
re vised</w>
tempor arily</w>
Pro per
R ace</w>
colon el</w>
oper ations.</w>
dissol ved</w>
mat ch.</w>
mul titude</w>
bul k</w>
An to
can o
Cla ude</w>
) ",</w>
Philadelphi a,</w>
Li e
en to</w>
Ph .
market s</w>
ug ly</w>
www.gutenberg .org</w>
Distribu ted</w>
travel s</w>
Tri bun
evol ved</w>
a '</w>
You 're</w>
knew ,</w>
anc e"</w>
er --
en er</w>
da d</w>
s '
or n</w>
Bro ther</w>
Y os
cloth es,</w>
trac k,</w>
Bel i
Joh ann</w>
present )</w>
regul ating</w>
r ounds</w>
bu b
Le ip
G ros
broadcast ing</w>
st s,</w>
Fl ying</w>
Met ro</w>
comp iled</w>
in ate</w>
cas ual
a es
acqu isition</w>
T ang
Con sul
pleas ing</w>
B ar</w>
Pro of
regul ations</w>
hand ling</w>
re tail</w>
&c .,</w>
8vo .</w>
ear nest
10 –
chann els</w>
tion )</w>
for th,</w>
1.F. 3.</w>
femal es.</w>
n an
G LI
E ast,</w>
Fr as
design .</w>
198 0,</w>
ninet eenth</w>
order s,</w>
enter prise</w>
per -
hill s,</w>
par don</w>
is a</w>
shi el
dec ade</w>
Divisi on.</w>
al arm</w>
nod ded</w>
Belgi um</w>
dar ing</w>
Scienti fic</w>
direc tors</w>
F R
Presid ent,</w>
sub urb</w>
be ast
compon ents</w>
require ments.</w>
Fre d
bac ter
Hon or</w>
pre val
tob acco</w>
4 4,</w>
we 've</w>
k an</w>
o bl
reven ge</w>
W all</w>
ro yalty</w>
blos som
Stud ents</w>
or ang
conv ince</w>
m ood</w>
pain s</w>
rad ical</w>
Aff air
ten sion</w>
aim s</w>
cor n
in hi
y ar
Hun ter</w>
arri v
tran qu
NO TE
A ward,</w>
G es
stre et.</w>
pre sum
li p</w>
： 「
Jo int</w>
after .</w>
sal v
instinc t</w>
Epis ode</w>
I LI
ani e</w>
V ent
the ory,</w>
experi ence.</w>
sleep .</w>
fig ure,</w>
De b
Ox ford,</w>
wro te,</w>
justic e,</w>
H ond
er- in-
plac es.</w>
thir d-
er ie</w>
192 8</w>
D est
winter ,</w>
suppor ters</w>
Wal es.</w>
beauti ful,</w>
your self,</w>
Avi ation</w>
ey e.</w>
sof tly</w>
ch est</w>
I da
tri ang
atmosph er
Sy rian</w>
n g
Rh ode</w>
n ap
fu sion</w>
She ffi
Tok yo</w>
ly ,"</w>
quali fy</w>
depri ved</w>
tim e."</w>
charg es.</w>
i eg
l "</w>
necess ary.</w>
i tion</w>
Is su
S EC
U R</w>
addres sing</w>
pil e</w>
T ir
be held</w>
gl ori
J enn
ear .</w>
contro l.</w>
M )</w>
re ach
Rober ts</w>
p yr
kil led.</w>
mer it</w>
er i</w>
re located</w>
ath .</w>
follow ed,</w>
inaug ural</w>
Par ty,</w>
Voivodeshi p,</w>
reser vo
(201 0)</w>
se al</w>
trans fer
P an</w>
promis es</w>
A uck
Copy right</w>
l s.</w>
progres sive</w>
" he</w>
in ste
Sc and
ch a</w>
t s;</w>
mechan ism</w>
be e</w>
g ate
Communic ations</w>
appre h
el ic</w>
au .</w>
marri age.</w>
2 8.</w>
leng th.</w>
Contin ental</w>
197 0s,</w>
F E
Glas gow</w>
Tex as.</w>
Cla udi
All an</w>
s ab
mon th.</w>
ton es</w>
girl s,</w>
l ington</w>
st a</w>
Rog ers</w>
now ."</w>
Bulg arian</w>
Soci ety.</w>
Jam es,</w>
Ed mon
Byz antine</w>
Magaz ine</w>
Cel tic</w>
peri odic</w>
gover ning</w>
Sol di
o res
ch in</w>
mo ist
15 5
L IN
n ings</w>
re con
speak ing,</w>
col our
ver i
m us</w>
cap tain,</w>
Song s</w>
fab ric
Rud ol
Paci fic
For mul
sc at
Ci tiz
8 8</w>
destro ying</w>
h og
for ward.</w>
wis dom
D A</w>
7 00</w>
G I
sub du
activ ely</w>
K ö
visit or</w>
Ele an
present ing</w>
In no
grou ps.</w>
comp are</w>
blow n</w>
Mal col
tr unk</w>
Shakespe are</w>
Fried rich</w>
entre prene
Switzer land</w>
Hum ph
b s.</w>
pul ling</w>
pro pose</w>
includ ed.</w>
Ger ald</w>
o ch</w>
whe el
cul min
A C</w>
V O
"G ood
appe aled</w>
v ain
compre hen
Fel low
gener ate</w>
ast ed</w>
193 5</w>
Re bel
ect ed.</w>
fi ght,</w>
Ro ad.</w>
med als</w>
business man</w>
it self
persu ade</w>
Ne u
su r</w>
Financ ial</w>
grati tude</w>
C old</w>
ur i</w>
Duch ess</w>
yiel ded</w>
film 's</w>
wid th</w>
ac tions.</w>
p oo
’ re</w>
Giov anni</w>
y _,</w>
f s</w>
, 9
shore s</w>
( e.g.</w>
ar ly,</w>
comm and,</w>
med it
he ight
7 3</w>
Wom an</w>
ti p</w>
sa int
happ y,</w>
System s</w>
treas ure</w>
instruc ted</w>
to ol
K um
on ",</w>
ley ball</w>
apol is</w>
househol der</w>
N as
k en.</w>
loo k,</w>
resembl ance</w>
electric ity</w>
r as</w>
mem o
if ,</w>
collec ting</w>
admir able</w>
13 .
le x
P ip
J up
gri m</w>
UN D</w>
it i</w>
Wall ace</w>
expl or
gl it
record ings</w>
evil le</w>
tribut ary</w>
ari ,</w>
um ent,</w>
190 0</w>
in scription</w>
it arian</w>
f ood
househol ds,</w>
where by</w>
Conserv ation</w>
D ata</w>
ep i
clin ical</w>
Fi re
blood .</w>
co s</w>
ble w</w>
run g</w>
buil t.</w>
attor ney</w>
Mc C
d wel
st out</w>
exec ut
smo king</w>
ong .</w>
en ess,</w>
s ley</w>
198 6.</w>
intend ent</w>
Acc ord
dish on
(201 1)</w>
or ange</w>
ans k
Mon ro
le ase</w>
exerc ised</w>
bil ity.</w>
Cha pel</w>
R um
soci et
The ater</w>
kil led,</w>
R ig
proper ty.</w>
Hung ary</w>
sum mer
grand son</w>
song s,</w>
philosop hical</w>
er ".</w>
month ly</w>
author ity,</w>
G et
Tot al</w>
tor e</w>
Out standing</w>
in ed.</w>
8 9
theat rical</w>
appro aches</w>
Provinc ial</w>
al arm
any thing
situ ation,</w>
Parliam entary</w>
19 12</w>
else where</w>
k ick
wood s,</w>
recipi ent</w>
'T is</w>
Bol iv
Chancell or</w>
M om
h ov
Greek :</w>
stre et
cont ext</w>
What ever</w>
Ac t,</w>
198 2,</w>
ity ."</w>
dem ocratic</w>
announc ement</w>
Color ad
Juli us</w>
uni verse</w>
L af
tra il
ch ase</w>
192 4</w>
cor on
Ab u</w>
exquis ite</w>
Po st-
fall .</w>
chi ck
in ted</w>
ad mission</w>
Mot or</w>
citiz en
er up
eg g</w>
(200 3)</w>
Ron ald</w>
wrong ,</w>
198 3,</w>
ind uce</w>
j un
e an
alis tic</w>
albu m's</w>
X ,</w>
, _</w>
gener ations.</w>
ben ch</w>
re bel</w>
en a,</w>
migr ation</w>
Cro m
tun nel</w>
subsidi ary</w>
prec au
man "</w>
Mov ement</w>
Juli an</w>
demol ished</w>
ho p</w>
193 3</w>
proce eding</w>
open ed,</w>
dir ty</w>
Colon ial</w>
to tal
ad i</w>
inev it
improv ements</w>
T :</w>
Col in</w>
O scar</w>
pre judic
direc tor,</w>
under taken</w>
m oc
S TE
n an</w>
sk il
che eks</w>
stir red</w>
Al li
Bor ough</w>
k u</w>
ha il</w>
end ure</w>
id ation</w>
enter tained</w>
oni a,</w>
192 9</w>
in o
W ang</w>
la ke,</w>
ind em
Str uc
le ."</w>
sm ell</w>
philosop her</w>
foc uses</w>
Bri dg
Ros en
less er</w>
. net
Lanc ashi
public ,</w>
Elec tric
Marqu is</w>
thre e,</w>
mir r
sur face,</w>
ó w</w>
I MP
Polic y</w>
sul ph
gh ost</w>
Empi re.</w>
err ors</w>
mach ines</w>
sp aces</w>
h l
mean s,</w>
F arm</w>
N ath
198 7.</w>
program m
Ow en</w>
let t</w>
custom ers</w>
pl an,</w>
asp ir
quanti ties</w>
sm en</w>
bor ough
literat ure.</w>
t et
cr um
se at,</w>
hor sem
ra in,</w>
see ks</w>
cast le,</w>
asser ted</w>
ant um</w>
Cl assic</w>
accompan ying</w>
exhaust ed</w>
bu ll</w>
Her z
Kir k
cylin der</w>
er ),</w>
conspic uous</w>
Paul ,</w>
ro pol
Qu es
year 's</w>
F alls</w>
ist a</w>
present -day</w>
ans "</w>
8 4</w>
Hen ri</w>
dil ig
fl ashed</w>
heav enly</w>
comm it
poss ess
interv als</w>
8 :
hi ding</w>
Carol ine</w>
cr ying</w>
Sain ts</w>
ch anc
Tw ent
Sa udi</w>
him ?</w>
B ased</w>
ak .</w>
bor rowed</w>
r ational</w>
a ")</w>
Some thing</w>
arrang e</w>
care .</w>
est er,</w>
In vestig
Ca uc
19 10</w>
H on.</w>
F ),</w>
15 -
a v</w>
em e</w>
par tis
proc ession</w>
on e"</w>
cath edral</w>
q .</w>
d ashed</w>
indul g
Solom on</w>
Festiv al,</w>
hand led</w>
cro p</w>
us eful
O S</w>
R ah
in ven
"E l</w>
li an</w>
at ed)</w>
50 ,000</w>
or chestr
territ ories</w>
re ign
sub stitu
exp ecting</w>
ac knowledge</w>
Res ol
Mast ers</w>
construc t</w>
o te</w>
pac ked</w>
sh eri
Pre vi
veter an</w>
De ad</w>
fre ight</w>
ani a,</w>
trou ble
William s,</w>
wa y;</w>
198 5.</w>
Mar c</w>
pre y</w>
Prot ection</w>
ag er</w>
B ad</w>
Studi os</w>
sur face.</w>
conce al</w>
Stock hol
U m
ar a,</w>
s ly</w>
O p.</w>
de an</w>
ball s</w>
s z
w itch
ne t.</w>
Fo x
Mag n
band .</w>
fle xi
we ather
li gi
murmu red</w>
practic e,</w>
abstr act</w>
y weight</w>
rep ul
wee ks,</w>
F ROM</w>
Westmin ster</w>
medi a.</w>
corrup tion</w>
Rel igi
ME DI
husband .</w>
. net</w>
ad joining</w>
ograp her</w>
Cemeter y</w>
holid ay</w>
tour ing</w>
campa ign,</w>
Lim ited</w>
ep s</w>
ci ties,</w>
cham ber
over s</w>
program ,</w>
2 9.</w>
Jo y
ad ds</w>
itt ed.</w>
tru ste
perform ed,</w>
oper ator</w>
Jus tin</w>
Man "</w>
sin king</w>
ant ;</w>
loc ally</w>
Liber ty</w>
gloom y</w>
hur ry</w>
di e.</w>
p od
Emil y</w>
un certain</w>
ab ul
z i</w>
b ishops</w>
Rec on
ell 's</w>
it "</w>
G and
St y
bar ri
down load
192 2</w>
comp as
Buen os</w>
em ble
w re
AC E
projec t.</w>
fortun e,</w>
buil t,</w>
an eous</w>
full- time</w>
CB S</w>
es /
return ed,</w>
abov e.</w>
R as
Gre eks</w>
scen e.</w>
Mer ri
ministr y</w>
B I</w>
D ER
O f
with draw</w>
po se
Rh od
u ary.</w>
forc es,</w>
Aut om
ch en
Prus si
end ed.</w>
Tro phy</w>
phi lanthrop
C H</w>
W ard
exp and</w>
inter mediate</w>
ir regular</w>
conduc tor</w>
Clin ton</w>
s m</w>
100 ,000</w>
193 4</w>
Les lie</w>
exist ence,</w>
In st
roman ce</w>
le dge</w>
team s.</w>
shop ping</w>
( 7
under take</w>
tradi tionally</w>
Lat ino</w>
ser p
s oc
fashi on,</w>
Buffal o</w>
eBoo k,</w>
hol der
impres sive</w>
C ly
beg an,</w>
Albu m</w>
exist ence.</w>
sti ff</w>
ay 's</w>
accoun t,</w>
lux ury</w>
Not ting
or ch
succe eding</w>
shi fted</w>
20 -
blood y</w>
Sta f
Don n
all ;</w>
har sh</w>
clim bing</w>
sec uring</w>
injuri es</w>
box es</w>
Performan ce</w>
A mat
b i</w>
form s.</w>
writ er.</w>
ga p</w>
K ans
termin us</w>
contemp t</w>
Franç ois</w>
Cz ech
men ;</w>
communic ate</w>
far mer
cur ve</w>
u si
pictures que</w>
merch ants</w>
Chall enge</w>
v o</w>
capit al,</w>
Cong res
middle- aged</w>
op .</w>
mar vell
w ent,</w>
inf ant</w>
fron ti
Tod ay</w>
197 9,</w>
"G o</w>
drum mer</w>
Con ven
Bre w
d an</w>
out door</w>
di ,</w>
f ond
wa u
clo th,</w>
a e"</w>
phenom ena</w>
me an,</w>
Whit e
"R ight</w>
6 4-
bl essing</w>
"C er
Ar chae
fu gi
P T</w>
in )</w>
am "</w>
left -
8 2</w>
observ ed,</w>
jus tified</w>
fair y</w>
diam e
alis m.</w>
ph arm
Every thing</w>
K ey</w>
amid st</w>
reg ain
stud y,</w>
Wilhel m</w>
US ,</w>
in us</w>
cr uci
As sy
bro ther.</w>
Whe el
con junction</w>
the y,</w>
vel oc
connec ts</w>
proph ec
dwell ing</w>
Sask at
lim bs</w>
Dom ini
Mus ic.</w>
f ast.</w>
sear ch,</w>
C ed
shore .</w>
Bl anc
CO M
ill ness</w>
y et.</w>
5 ,000</w>
anc y,</w>
review ed</w>
dev ast
Hal f</w>
Sav i
cer tified</w>
g gl
challeng ed</w>
valu ed</w>
oper ation.</w>
193 2</w>
Ro se
victor y.</w>
( 2</w>
steam er</w>
uk i</w>
up set</w>
reti re</w>
ren ess</w>
pati ence</w>
marri ed,</w>
Est abl
in vention</w>
P C</w>
D ir
al ge
the olog
cred its</w>
P and
princ es</w>
tax es.</w>
campaign .</w>
situ ation.</w>
Se an</w>
Cab inet</w>
Bo x</w>
Main e</w>
mis er
pap er.</w>
pret ended</w>
gu arded</w>
Em ma</w>
GUTENBER G
N on
Se as
th am</w>
G as
any thing,</w>
Pres ently</w>
mil i
ag e-
n y,</w>
Volunte ers</w>
you !"</w>
oppos ing</w>
Lt d.</w>
tel es
is _</w>
York shire</w>
mem ories</w>
Boo ks,</w>
the or
N AT
wand ered</w>
da e</w>
emo tion</w>
t ested</w>
cul ture,</w>
atten tion,</w>
al is</w>
doc tor,</w>
twenty- four</w>
D uc
Ed win</w>
conqu er
it es,</w>
reco very</w>
respec ted</w>
Arist ot
head ing</w>
Al most</w>
U t
embar ked</w>
"T ake</w>
t ,"</w>
Children 's</w>
b en</w>
sanc tu
C umber
op ,</w>
nom ine
197 2,</w>
fl or
J ess
solic ited</w>
publ ish</w>
Br itt
tra it</w>
land ers</w>
speci alized</w>
O h</w>
en listed</w>
FI G.</w>
mat e.</w>
swif tly</w>
16 3
M ani
rel ate</w>
ambass ador</w>
ob il
Ang el</w>
affair s,</w>
spr ings</w>
aston ish
Org an
tric k</w>
ig ning</w>
U ru
ou d,</w>
config ur
Per ry</w>
oppon ents</w>
C ity
day ."</w>
bound aries</w>
form ula</w>
" American</w>
(201 2)</w>
gre eted</w>
b ari
embro id
Romani zed</w>
tax es</w>
jeal ous</w>
leap ed</w>
w ishing</w>
conduc ting</w>
st en
Govern ment.</w>
qui et,</w>
Formul a</w>
poss esses</w>
Ret ur
Organi z
 k m
k ick</w>
Intellig ence</w>
ri fl
Be a
low ered</w>
collec tive</w>
dig ni
e c</w>
Youn g
Caribbe an</w>
st ops</w>
psych ological</w>
civ ili
Broad casting</w>
abund ance</w>
V ,</w>
tal k
g ress</w>
S port</w>
market ,</w>
N er
i rie</w>
Pop ular</w>
Er n
ag i
fut ure,</w>
dist ance.</w>
bir d
H MS</w>
198 4.</w>
bo iling</w>
h at,</w>
T ap
y e,</w>
sti g
character s.</w>
Mer cur
sp ur
man n,</w>
expres sing</w>
Academ ic</w>
Island s,</w>
ic ial</w>
UN DER</w>
spo t,</w>
bir d,</w>
produc ers</w>
tak en,</w>
is :</w>
run ,</w>
u ate</w>
Di e</w>
M ill</w>
clo sure</w>
ma "</w>
Or chest
exha us
re b
7 9</w>
L P</w>
bow l</w>
w ash
dog ,</w>
sex u
conv eyed</w>
pain ,</w>
Sha h</w>
ro .</w>
just ly</w>
admi red</w>
wrest ling</w>
k u
promp ted</w>
fro zen</w>
Croati an</w>
9 1</w>
are as,</w>
wee ks.</w>
re membr
tem ples</w>
St age</w>
he ated</w>
scienti sts</w>
yester day</w>
stre ets,</w>
bos om</w>
you !</w>
them es</w>
col oni
nam es,</w>
cent ers</w>
ag encies</w>
al ",</w>
an us</w>
Ven ice</w>
happ ily</w>
L op
perpet ual</w>
Ch ann
et "</w>
t ing.</w>
Massachuset ts,</w>
sens ation</w>
al one
syn onymous</w>
bal d</w>
inc umbent</w>
unc le,</w>
o t.</w>
W yn
k at
8 1</w>
Spenc er</w>
F en
6 4
sty le
negl ected</w>
no -
div ide</w>
ha bil
her oes</w>
ing ".</w>
Sch war
Ch at
p m</w>
resign ation</w>
p amph
rebel lion</w>
flu id</w>
S part
deliber ately</w>
Kingdom ,</w>
Argent ina</w>
. ).</w>
Ra il</w>
Mad ison</w>
5 3
Mos c
J or
dis aster</w>
s worn</w>
sugg est
( to</w>
ey 's</w>
Sp ain
h it
ä r
of t</w>
weal th,</w>
par don
TION ,</w>
sti ff
Fran z</w>
mi e</w>
Migu el</w>
o to</w>
C ode</w>
C ai
Oper ations</w>
19 15</w>
resem ble</w>
mar ching</w>
err ors,</w>
sear ched</w>
" For
accommod ate</w>
che ap</w>
comp rises</w>
Asi a,</w>
Le op
Mor ning</w>
V -
L -
know ,"</w>
Te ach
S chi
coun ty,</w>
Mus ical</w>
inj us
in nat
con vey</w>
on ly.</w>
sc ener
s ic
Rac hel</w>
J our
192 1</w>
surpris e,</w>
Gener al,</w>
T o-
connec tions</w>
197 4,</w>
Ma c</w>
cr ushed</w>
B ever
betra yed</w>
9 2</w>
reli eve</w>
en rolled</w>
ff s</w>
N BC</w>
dra g</w>
ung ,</w>
A ur
witness es</w>
ili ary</w>
ston es,</w>
doubt ful</w>
W inn
ari a,</w>
sculp ture</w>
"O ur</w>
vari ations</w>
bir th,</w>
Photo graph
al lies</w>
repl y,</w>
O MI
S abb
advent ures</w>
in jec
jo ins</w>
sm .</w>
et or
fa x</w>
da in
issu es.</w>
advoc ate</w>
me --
O u
a j</w>
De ad
shop ,</w>
r abb
k an
sh rub
ac ute</w>
decisi ons</w>
circul ation</w>
Mas on</w>
exp end
Ed wards</w>
ar "</w>
in king</w>
ag it
pa ir,</w>
tion ."</w>
invari ably</w>
credit ed)</w>
p uri
horizon tal</w>
Bey ond</w>
in differ
board s,</w>
HA VE</w>
welcom ed</w>
198 0.</w>
seem ingly</w>
"L es</w>
brother s,</w>
transpor ted</w>
r é
World "</w>
198 1,</w>
tic a</w>
ag e"</w>
w e,</w>
adi er</w>
Micro soft</w>
so ;</w>
avo ided</w>
pe ace
But ler</w>
ol a,</w>
19 16</w>
cent r
0 ;</w>
www.gutenberg .org/
h r</w>
f th</w>
+ --------
194 4,</w>
9 8</w>
long ing</w>
le m</w>
mast er.</w>
top ics</w>
chor us</w>
glimp se</w>
co aching</w>
lead er,</w>
tour ist</w>
Par tic
197 5,</w>
R it
cot t</w>
b ell,</w>
warri ors</w>
Mic hel</w>
invol ve</w>
Do es</w>
bre ed</w>
respec ts</w>
Com e,</w>
repor ter</w>
193 1</w>
Cy pr
er /
Mari o</w>
s .'</w>
8 3</w>
whe at</w>
Spani ards</w>
e str
K is
su mp
play off
val ley,</w>
gra ve,</w>
197 0,</w>
A chiev
light -
St al
W end
de als</w>
e.g .,</w>
dis mis
activ ist</w>
complic ated</w>
st ay
forbid den</w>
subjec ted</w>
step s,</w>
m in</w>
Sk y</w>
s mu
Gol f</w>
Pro gres
el ic
un successful</w>
swe ep</w>
lik e.</w>
quar rel</w>
ra id</w>
all ."</w>
v aries</w>
" an</w>
f ü
eleg ant</w>
gras s,</w>
declar ing</w>
manufac turer</w>
"S h
Ed gar</w>
Com mercial</w>
trou bles</w>
b achel
reti ring</w>
N ord
n ing.</w>
in ."</w>
let s,</w>
( ).</w>
C ut
T ag
am bition</w>
Ar med</w>
is ;</w>
"Th ank</w>
accompl ish
conserv ation</w>
rec eption.</w>
coar se</w>
din ner
serv ant,</w>
on y,</w>
M IS
Or der
sail ors</w>
practi sed</w>
w s,</w>
extinc t</w>
Man it
"S ome
Tw el
under took</w>
observ ing</w>
I’ ll</w>
su gar
per mission.</w>
14 .
cro ps</w>
intens ity</w>
grad ed</w>
prec ise</w>
V III</w>
T ong
exc essive</w>
M um
St o
W ing</w>
ton e.</w>
mor ph
o' er</w>
Mar shal</w>
comp act</w>
mis ery</w>
P ac
K end
right s,</w>
Tod ay,</w>
popul ations</w>
Hamp shire</w>
sa ke,</w>
196 8,</w>
w ages</w>
A bo
fre e
contrac ted</w>
lu gg
8 7</w>
for get
skir ts</w>
condi tion.</w>
repor ting</w>
inter course</w>
v o,</w>
Bou lev
198 3.</w>
(200 2)</w>
tournam ent.</w>
ure "</w>
K re
gott en</w>
ped est
fin e,</w>
ME R</w>
b ills</w>
viv id</w>
f e,</w>
answ ers</w>
en ."</w>
system s,</w>
Pro b
Ab du
co at,</w>
"H ere</w>
il ly</w>
pl y,</w>
"O h!</w>
edi tions,</w>
H ey
M H
si p
fi re-
religi on.</w>
hungr y</w>
projec t,</w>
mut tered</w>
he ight,</w>
du o</w>
p age
at tain
chec ked</w>
R ut
pat rol</w>
17 3
Lak e,</w>
YouTu be</w>
amp hi
Princip al</w>
L é
la kes</w>
regard less</w>
magnit ude</w>
P é
wife 's</w>
kne e</w>
C ord
inv ested</w>
Al ask
fee ble</w>
compla ined</w>
fort ress</w>
M org
R aw
ut ation</w>
machin ery</w>
sk illed</w>
pl ants,</w>
with drawn</w>
-- -</w>
ep hal
Cathol ic
em is
Test ament</w>
cat ching</w>
age ous</w>
mathematic al</w>
194 5.</w>
VE N</w>
192 7</w>
Con si
re v
"B est</w>
F oun
Su peri
an y,</w>
Rec ord</w>
Lux em
episod e,</w>
Fe at
squ are
arg ue</w>
om or
S A</w>
mon opol
dang er,</w>
he ap</w>
ar s.</w>
vi .</w>
"B ec
Sha k
Fle m
tow ers</w>
RE N
celebr ate</w>
st amp
bes ieg
W ik
cho ir</w>
rec ord,</w>
wal d</w>
Malay sia</w>
ing !</w>
pit cher</w>
statis tics</w>
oo m</w>
C ar</w>
w et
grat efully</w>
k /
9 7</w>
" From</w>
beh old</w>
197 8,</w>
up on,</w>
per 's</w>
ey e
sid es.</w>
some thing
amp ton</w>
tri bun
cog ni
inter val</w>
N il
bu st
school 's</w>
TA L</w>
know n
192 5</w>
fet ch</w>
sc rut
v agu
fati gu
ul ating</w>
aut obi
then -
met al
Leg al</w>
k ie</w>
18 -
NE W</w>
re veng
Vo y
Theod ore</w>
197 6,</w>
liv es.</w>
196 0s,</w>
go in'</w>
guid ance</w>
inqu ir
sub scribe</w>
cap tiv
be er</w>
be ast</w>
l as</w>
fiel der</w>
diseas e,</w>
al ter</w>
re di
H es
chair .</w>
sc rup
preser vation</w>
Mil wau
sli p
h !"</w>
E vel
" Li
sa int</w>
E is
desi res</w>
k ov</w>
shoul der,</w>
resem bling</w>
ide a,</w>
shar ply</w>
at e;</w>
Prof .</w>
Empi re,</w>
bar on
Adela ide</w>
phi c</w>
again ."</w>
par ting</w>
syn dro
Jac k,</w>
C 's</w>
plun ged</w>
your s</w>
w it</w>
gras p</w>
A my</w>
fe es,</w>
( n
obvi ously</w>
coun ts</w>
K ay
degre e,</w>
regul ation</w>
190 8</w>
prin ts</w>
Isra el,</w>
(c )</w>
Nor folk</w>
Lig a</w>
M .,</w>
Ori ental</w>
vir tually</w>
h u</w>
provisi ons.</w>
3 "</w>
prov es</w>
star s,</w>
p ushing</w>
( ed
JOH N</w>
law ful</w>
Magaz ine
192 3</w>
slo pes</w>
spor t.</w>
ver 's</w>
; --
tic ket</w>
O ther
ru ff
mistak en</w>
MA N</w>
,000 ,000</w>
politic ian.</w>
198 2.</w>
- time</w>
design ation</w>
(201 3)</w>
ve iled</w>
simil arly</w>
y an
ab brevi
leng th
il la
ans ;</w>
Mar tha</w>
maj or
fli ghts</w>
" Ac
asle ep</w>
head s,</w>
A m</w>
sp here</w>
photograph y</w>
P UR
se p
roc ks,</w>
enem y's</w>
ch arities</w>
re pair
Indu stry</w>
s en,</w>
con siders</w>
premi ere</w>
19 11</w>
perman ently</w>
civil ization</w>
relation ships</w>
s ink</w>
"H e's</w>
j ung
acc laim
Festiv al.</w>
mon ks</w>
ob ser
enjo ying</w>
lord s</w>
"C ap
mur m
-in- law</w>
athle tic</w>
C AP
C ock
laugh ed.</w>
Be aut
fri ed</w>
Cor in
st an</w>
improv ing</w>
S ex
AS E</w>
sm ith</w>
Fir st,</w>
tiv eness</w>
lo vel
un consci
window s,</w>
right ,"</w>
res sion</w>
fo rec
discover s</w>
Sac ram
particip ants</w>
Death .</w>
L os
"W ill</w>
through ,</w>
G ö
dis play,</w>
inter i
gol d.</w>
form idable</w>
peop le's</w>
Presbyter ian</w>
Phili p
ra ft</w>
e ach.</w>
de 's</w>
it ly</w>
learn t</w>
11 -
: 00
rein forc
posi tively</w>
Illino is,</w>
g ossi
on going</w>
pat ches</w>
him ,"</w>
Ser i
Sy no
d ’
communic ated</w>
d ing.</w>
part ners</w>
simultane ously</w>
as a</w>
struc tural</w>
diseas es</w>
gu ard
inform ation,</w>
(200 1)</w>
us -
shou ldn't</w>
pup il</w>
alco hol</w>
edi tion,</w>
DE D</w>
k ills</w>
da y-
vic e-
attrac tion</w>
é t
ro y
particip ating</w>
wag on</w>
doc tors</w>
T )</w>
bl ical</w>
awa y--
car b
b end</w>
tr um
B UT</w>
rel atives</w>
touch down</w>
child 's</w>
Tra il</w>
et z
Ap plic
â te
re joined</w>
In do
dr unk</w>
col og
cre am</w>
congreg ation</w>
, 8
de ;</w>
pattern s</w>
conf essed</w>
bec ause,</w>
a ñ
192 6</w>
end ur
Ath ens</w>
[ 10
Let ter</w>
North west</w>
G av
J enni
Adv anced</w>
J ust
app li
t ed:</w>
C open
bo at.</w>
beh ind,</w>
now ,"</w>
(un credited)</w>
F und
Me ad
Law ren
s ins</w>
n un
- e</w>
re z</w>
9 3</w>
r at</w>
diseas e.</w>
lo yalty</w>
sugg esting</w>
E z
fin als.</w>
induc ted</w>
bus ,</w>
Z one</w>
W E
k in,</w>
am ed.</w>
P yr
bon us</w>
fanc ied</w>
enc od
D im
histor ians</w>
19 )</w>
Tel evisi
Col le
arri ves</w>
f lin
scienti st</w>
ch ess</w>
sil ent,</w>
Cont act</w>
un expect
ra "</w>
sh rew
let 's</w>
her ed
you thful</w>
again ;</w>
ne y's</w>
D augh
on ic
let ter.</w>
E igh
d ed.</w>
ch op
initi ative</w>
T ill</w>
mi ght,</w>
AT E</w>
19 13</w>
sla in</w>
bi o
H AR
S wi
Di ffer
M ali
9 4</w>
198 0s.</w>
Del aware</w>
L um
viol in</w>
________ ________
at ing.</w>
j et</w>
it ’s</w>
bas in</w>
cow ard
Blo om
stat es.</w>
dri vers</w>
pho to</w>
Vill a</w>
bl ue,</w>
purpos es.</w>
y ard,</w>
bes ides,</w>
concer ts</w>
main tains</w>
for t,</w>
lar ged</w>
Camer on</w>
14 0
end less</w>
sub tle</w>
rang es</w>
EN TI
ner ve</w>
es el</w>
Dak ota</w>
a '
Be ar</w>
S now
inter c
bri dges</w>
D ate:</w>
agre e
Angl ican</w>
s _.</w>
ph ot
Malay si
reviv ed</w>
los es</w>
R é
win .</w>
F lin
ha k
reck on</w>
jo y,</w>
priv ately</w>
buri al</w>
ten ure</w>
part s.</w>
ec lip
produc er,</w>
pl ate
( 180
Mil an</w>
valu e.</w>
br ush</w>
on so</w>
swit ched</w>
sun .</w>
n ations,</w>
Vlad imir</w>
require ments,</w>
don ors</w>
197 9.</w>
" one</w>
Philli ps</w>
197 1,</w>
S ap
cre ates</w>
effici ency</w>
Bre ak
rebel s</w>
C are</w>
Cent ur
escor t</w>
grap her</w>
fl y
ch ol
bl er</w>
nowiki >
ha ste</w>
Liter ature</w>
open -
smar t</w>
att ach
L ip
id ol
hous es.</w>
wind ing</w>
ä n
pris on,</w>
ez ,</w>
j unc
ne tt
dis appointed</w>
Ste in
ar ound,</w>
negl ect</w>
al tar
App le</w>
char t.</w>
Life "</w>
s .]</w>
ar k
ex terior</w>
Wol f</w>
Bar t
in t.</w>
de ed</w>
Lef t</w>
i.e .,</w>
coun ting</w>
Rena issance</w>
IN CI
Un fortun
Yel low</w>
ant astic</w>
ć ,</w>
at ur
activ ated</w>
Sco tt
but ter</w>
25 th</w>
Lead er</w>
implement ed</w>
cl es.</w>
1 10
co alition</w>
V ick
-- if</w>
gau ge</w>
re plic
accompl ish</w>
Mal es</w>
G ,</w>
pian o,</w>
7 "</w>
Sur vey</w>
K ash
ti s,</w>
hal ted</w>
chap ters</w>
196 9,</w>
curi os
vol untary</w>
meas uring</w>
(200 0)</w>
C off
cont ented</w>
sty les</w>
Mem ber
T rail
n ered</w>
Port land</w>
v ed
gol f</w>
Ro ch
197 7,</w>
L ess
f ere</w>
g end
F und</w>
Yan ke
S li
iss a</w>
an atom
Tr ue</w>
197 3,</w>
P C
GUTENBERG -t
,-- a</w>
,00 0)</w>
land ;</w>
ban ned</w>
Florid a.</w>
Fri ends</w>
b ending</w>
Ontari o,</w>
command s</w>
bu ying</w>
SI L
Tas man
hol der,</w>
S cha
shir t</w>
Stan ford</w>
o h</w>
mon t,</w>
8 9</w>
ec do
po d</w>
can .</w>
spo ke,</w>
strang ely</w>
int ol
Commer ce</w>
war rant</w>
UK ,</w>
Epis copal</w>
n as
st al</w>
ex changed</w>
"D ef
in different</w>
an ",</w>
NES S</w>
Writ ing</w>
her e,"</w>
"G od</w>
piec es,</w>
sevent een</w>
map s</w>
still .</w>
br is
bre ez
es ?"</w>
ch "</w>
litt le.</w>
beet le</w>
pal m</w>
jour ney,</w>
15 .
prosper ity</w>
neutr al</w>
od ,</w>
Beg inning</w>
es ian</w>
di an</w>
vari able</w>
i i,</w>
hi s.</w>
est ates</w>
Fair banks,</w>
seas on
manif est</w>
squ adr
MR S.</w>
A h!</w>
Mari on</w>
S C</w>
ver sion
Ch or
te as
na y,</w>
fasc in
princ ess</w>
pri m
ser ,</w>
d ine</w>
alis "</w>
tw o
f on
in accurate</w>
accoun ted</w>
mou ld
A F</w>
16 -
cur se</w>
Tod d</w>
L ow</w>
M OR
Cre ek,</w>
Proof reading</w>
it ors</w>
ec t,</w>
farm ing</w>
implement ation</w>
ex cur
Asi a.</w>
li ve,</w>
Mil ton</w>
Ag ain,</w>
Relig ious</w>
i ties</w>
Hen ry,</w>
Ab b
ti fy</w>
inter cep
Mon te</w>
ens em
princip ally</w>
de er</w>
awa iting</w>
nor th.</w>
b ells</w>
cod ic
Fut ure</w>
Sou theast</w>
a /
" what</w>
pi p
dec ree</w>
bour g</w>
d )</w>
exam ining</w>
y ne</w>
nam e
aj a</w>
K night
at em
expres sions</w>
hon ors</w>
ambi tious</w>
Is lam</w>
co ins</w>
O' Bri
a ul
F IN
hi re</w>
F ru
Saskat chew
y cle</w>
Ex change</w>
oppon ent</w>
chi c
right s.</w>
exc iting</w>
tit udes</w>
cul t</w>
ha .</w>
assur ance</w>
poet ry,</w>
reviv al</w>
pre tt
im ported</w>
a id
ol l
at on</w>
1 13
K ather
character s,</w>
a e.</w>
colleg es</w>
Pl an</w>
ligh ter</w>
politic s,</w>
suppos e,</w>
enforc ement</w>
writt en,</w>
investig ate</w>
en tic
In v
Encyclopedi a</w>
T ed
ox ide</w>
fra ud
wa ved</w>
resem bles</w>
In qu
oxy gen</w>
L as
bar ,</w>
sett ling</w>
man -
e ast.</w>
coun ter</w>
s in,</w>
loc k,</w>
Lou is,</w>
Mean while</w>
G ay
ou n</w>
A bor
V eter
"B lack</w>
st ub
lo ading</w>
(S .
surpris ing</w>
furi ous</w>
clerg y</w>
him ?"</w>
“ the</w>
releg ated</w>
Tr ou
tun n
releas es</w>
new ,</w>
p an</w>
sympa thetic</w>
B ig
Th an
justi fy</w>
brother 's</w>
inde x</w>
Republic ,</w>
— a</w>
big ger</w>
ossi l</w>
at ori
Well ington</w>
S ucc
kno ck
build ings.</w>
objec tion</w>
ful fil
S UC
tan eous</w>
ben evol
ul l
sen se
0 /
out ;</w>
comp rising</w>
T E</w>
sing er,</w>
W ell</w>
depos ited</w>
bu ffal
W ei
escap e.</w>
de pression</w>
leg s,</w>
"N ever</w>
ou ,</w>
g low</w>
tear s,</w>
at us"</w>
Rev iv
u ed</w>
Toge ther</w>
20 ,000</w>
ty pe
I E
Republic .</w>
Uru gu
a us</w>
eri es,</w>
illustr ations</w>
Care er</w>
func tional</w>
w ounds</w>
St ars</w>
ance str
199 0s.</w>
direc ting</w>
ator y,</w>
coun ter-
Cath edr
es say</w>
T ech</w>
“ It</w>
Le on</w>
C any
al yp
( 179
Inter state</w>
giv en,</w>
An nie</w>
ri .</w>
regim ents</w>
Brookly n</w>
board ing</w>
M Y</w>
expens es</w>
municip alities</w>
G at
sp ire</w>
Ukra ine</w>
Dy nam
B L
high .</w>
kid n
ali en</w>
up right</w>
yel low
Am bro
sen i
carri er</w>
im ,</w>
Eu gene</w>
O il</w>
bas es</w>
ov e,</w>
3 ,000</w>
res urrec
ru m</w>
mention ed,</w>
prot ecting</w>
enc e:</w>
d ual</w>
B har
Fern ando</w>
hair .</w>
sur fac
al titude</w>
Parliam ent,</w>
S anc
Ferg us
co ast.</w>
G IV
dre amed</w>
gr ace,</w>
ong -
  million</w>
I P</w>
u i</w>
acc red
y s.</w>
ge "</w>
0 8</w>
self ish</w>
grav ity</w>
tap e</w>
f a</w>
t abl
WIL L</w>
u le
F IT
tu ber
T UR
work er</w>
Fin ance</w>
" Or
rescu ed</w>
C air
lab our
E cu
mol lus
comple xi
min eral</w>
es pi
mess enger</w>
un ite</w>
discus sing</w>
absur d</w>
bas ket</w>
co operation</w>
Nat ur
ation s;</w>
New castle</w>
Pear l</w>
Li by
consec rated</w>
we ather,</w>
ty "</w>
contro l,</w>
Mad ri
in '
you --
ing redi
sil ently</w>
con clude</w>
fe es.</w>
trad e.</w>
under ne
scholar ship</w>
ni fy</w>
ener ge
enc e."</w>
hon ey
appreci ate</w>
Sept ember.</w>
Award .</w>
at ern
Paul 's</w>
196 7,</w>
cemeter y</w>
u es,</w>
Fa ith</w>
pri est,</w>
vo ters</w>
shoul ders,</w>
sudden ly,</w>
Cinc innat
i re,</w>
S ER
r oused</w>
c ular</w>
ne ur
defin e</w>
research ers</w>
Mil es</w>
A gre
adop tion</w>
job s</w>
present ation</w>
(" the</w>
bul let</w>
resul t.</w>
J ose</w>
bro w</w>
kil ome
fore ver</w>
arri ved,</w>
li ,</w>
min er
earthqu ake</w>
so ap</w>
ub b
H all.</w>
pursu ing</w>
quali fication</w>
s worth</w>
S ister</w>
en larged</w>
Lord s</w>
3 D</w>
se y,</w>
0 9</w>
Doc ument
b agg
A st
Del hi</w>
sig nature</w>
thought s,</w>
col our,</w>
Iraq i</w>
lec ture</w>
det ected</w>
Tha i</w>
Al aska</w>
ne gro</w>
clos est</w>
Th ink</w>
P D
0 %</w>
objec t,</w>
k night
14 -
g ap
behavi our</w>
posi tions.</w>
ill u
thor ough</w>
n s.</w>
and 's</w>
inter fere</w>
po ol,</w>
imm igrants</w>
Rang ers</w>
comm ents</w>
bo y's</w>
Rus sel
compu ters.</w>
rist s</w>
stat ed,</w>
gri m
S U
compet ent</w>
news letter</w>
fif ty-
helpl ess</w>
perf ection</w>
sinc e,</w>
pa ths</w>
dam ages,</w>
uni form
mer ger</w>
C ous
Lu ther</w>
cam er
D res
in um</w>
advent ur
at el
"Di e</w>
m ys
Contribu tions</w>
obsc ure</w>
man ."</w>
res is
play w
Wor d</w>
tu m</w>
ed ly.</w>
inn ings</w>
Ma y.</w>
sens es</w>
Al le
percus sion</w>
met ropolitan</w>
Swe et</w>
rhyth m</w>
190 6</w>
or y
Comple te</w>
Independ ence</w>
hi c</w>
pig e
half ,</w>
Luc i
knoc k</w>
s .,</w>
Enter tain
consu mption</w>
del e
lead er
display ed,</w>
spo kes
Hor ace</w>
Co ach</w>
phenomen on</w>
M emp
Ne gro</w>
vac ant</w>
relat es</w>
dat abase</w>
c z
doub ts</w>
con form
Cla y
ori ented</w>
hol der.</w>
br anded</w>
i k</w>
s ound.</w>
mi ght
dec reas
ES P
vul ner
Stor m</w>
194 2,</w>
Shi p
org ans</w>
locomo tive</w>
agricul ture</w>
S ard
sid ed</w>
incap able</w>
figh ters</w>
P ati
# 1</w>
h int</w>
Mag ic</w>
L ex
lec tures</w>
te "</w>
Pennsylvani a.</w>
depart ments</w>
An '</w>
mem ori
any )</w>
C K
g an
Let ters</w>
hand ful</w>
no te:</w>
Res ul
Columbi a,</w>
i ble</w>
po etic</w>
bro o
quick ly,</w>
ther e;</w>
ham 's</w>
s ophi
ro d
pat ron</w>
Franc es</w>
Che ster</w>
pois on
vari ant</w>
D ob
grac ious</w>
Mur phy</w>
l end</w>
light ning</w>
F let
th al</w>
s word,</w>
C ase</w>
ge ographical</w>
k es.</w>
ex al
dis plays</w>
h n</w>
N ,</w>
Br as
dark ness,</w>
auth ored</w>
confid ent</w>
thre ad</w>
Jack son
heal th.</w>
decisi ve</w>
12 )</w>
N un
bri de</w>
cap ita</w>
re hear
en ,"</w>
Champion ships.</w>
1 16,</w>
car tri
er ed.</w>
sha w
L omb
N -
inter n
Georgi a,</w>
Tom ,</w>
ang els</w>
chemistr y</w>
ST RI
ar oused</w>
A A</w>
li ves,</w>
proced ure</w>
vir tual</w>
t ends</w>
T amp
B )</w>
beg an.</w>
bit tern
cab in
wrong .</w>
197 8.</w>
che ek</w>
lo tt
Mad rid</w>
[ 7
fre e-
Augu st.</w>
met re</w>
awak ened</w>
197 2.</w>
(201 4)</w>
c ock</w>
she er</w>
In str
as ph
"Well ,"</w>
ze al</w>
fron tier</w>
deser ve</w>
pol l
Aren a</w>
g lowing</w>
RI GHT</w>
h ob
prot agon
sp her
competi tion,</w>
illustr ation</w>
ut tering</w>
am used</w>
S aw
Ri ght
Dun can</w>
GUTENBERG-t m</w>
P ath
ket ,</w>
Cap t.</w>
har a</w>
add y</w>
affec ting</w>
h ed
al read
Theat re,</w>
Jos h</w>
ne -
memor able</w>
par ap
ver ed</w>
F av
so ,"</w>
Auth or</w>
Ger man,</w>
ens es</w>
Har t,</w>
ter ms,</w>
celebr ation</w>
am er
ver -
Rid ge</w>
sh an
bod y
Willi am,</w>
el la
fic ations</w>
he ap
him --
s-- the</w>
Tre v
des pair</w>
Der by</w>
Tur n
m et,</w>
av ian</w>
Palest inian</w>
str ings</w>
any one.</w>
New found
K .
l ust
op pose</w>
p ub
ah 's</w>
Ste el
bur g.</w>
desc end</w>
v n
spot ted</w>
es !"</w>
Liv ing</w>
vide os</w>
Luther an</w>
Abo ve</w>
Vi ew
co in</w>
1, 0
Wild life</w>
P ig
us er,</w>
minut e,</w>
IL L
Star ting</w>
cor ners</w>
your sel
http://pglaf .org/
f i</w>
mess ages</w>
inter views</w>
en compass
vir us,</w>
http://pglaf .org</w>
O ak</w>
Brit ain.</w>
under went</w>
bri d
quick ly.</w>
emo tions</w>
b ited</w>
Class ical</w>
Cub an</w>
un pleasant</w>
Cor p
accept ance</w>
am or
os aur
command .</w>
Bir d</w>
t ine</w>
ch t</w>
Tran sportation</w>
Provid ence</w>
conc eive</w>
bu ff
id d
introduc ing</w>
stri pped</w>
in complete,</w>
s ore</w>
laugh .</w>
materi al,</w>
squ ir
a ther.</w>
cl um
sun shine</w>
Face book</w>
mar tyr
centuri es,</w>
188 7,</w>
St ep
charg e,</w>
ing s;</w>
ali e</w>
fa ir,</w>
Show "</w>
dang ers</w>
s ]</w>
ver sion,</w>
Jos hua</w>
tra p</w>
l umin
sil ly</w>
Y et,</w>
behind .</w>
thre n</w>
milli on
Andre a</w>
custom ary</w>
enjoy ment</w>
b lowing</w>
exce eding</w>
know ."</w>
re treat
Campa ign</w>
activ ity.</w>
desc ending</w>
projec ted</w>
hi r
_ C
XX X
i er
A TIONS</w>
prevent ing</w>
bre eze</w>
as sets</w>
Colum bus</w>
ian )</w>
return s.</w>
Ste el</w>
200 7)</w>
sub mar
Frank fur
cont ing
fun er
Sup port</w>
cam e.</w>
30 -
Rel i
Cincinnat i</w>
ro ar</w>
famili es,</w>
mo thers</w>
Dar k
top ,</w>
Val enc
Mar s</w>
to-mor row
n our
ha un
o il
I F
le tt
Clar a</w>
_ E
recru ited</w>
lear ns</w>
bon ds</w>
"L ook</w>
tw isted</w>
perc eption</w>
long er,</w>
Re in
Sec tions</w>
da zz
Ar ts,</w>
elder ly</w>
occur ring</w>
legislat ure</w>
right )</w>
ver y
co t</w>
Jan et</w>
coo king</w>
met aph
av es</w>
( not</w>
Mar j
"L '
Cy ri
Mc G
frame work</w>
edit orial</w>
en )</w>
Liv ing
o'cloc k,</w>
Char les,</w>
hand -
inev itable</w>
h all.</w>
sk ins</w>
Vancou ver</w>
N ed</w>
K ad
She 's</w>
oph one</w>
Majest y's</w>
(199 9)</w>
Territ ory</w>
bas e,</w>
198 1.</w>
Rabb i</w>
va ul
man sion</w>
190 5</w>
compar able</w>
eigh teenth</w>
S et
f oul</w>
do z
[ Greek:</w>
perform ,</w>
ch y</w>
em an,</w>
collabor ated</w>
B AR
Pen insu
red ;</w>
Ev id
f ung
d at</w>
le ment</w>
Sun day,</w>
athlet es</w>
ing en</w>
De ar</w>
defic i
197 4.</w>
Lind a</w>
pu ted</w>
Bla ke</w>
war fare</w>
as ti
partic les</w>
bi bli
sentim ents</w>
pr oud
speed ily</w>
Ar sen
du g</w>
TH ER
it us</w>
Lis a</w>
Arc tic</w>
are d,</w>
anim als.</w>
Wat son</w>
dwel t</w>
pret end</w>
[ 6
ent -
sw ing</w>
200 8)</w>
sha ft</w>
pic king</w>
cra ft
adv ise</w>
s ing.</w>
F ay
sup port
mo s</w>
"T ell</w>
pra yed</w>
eas e.</w>
197 6.</w>
10 )</w>
conv ul
Jerse y,</w>
stret ching</w>
"L ittle</w>
Con c
diff ers</w>
Antarc tic</w>
i j
sec ular</w>
us s</w>
leis ure</w>
to k
194 1,</w>
mo tives</w>
Carol ina.</w>
mir ror</w>
Banglad esh</w>
con ve
not e,</w>
gen re</w>
weigh ed</w>
og a</w>
TH ING</w>
phr as
L ine
par as
feel ing,</w>
P am
st ur
royal ties</w>
Caval ry</w>
Pol and,</w>
cric ke
spor ting</w>
cr y,</w>
portra its</w>
bl ank</w>
[ 3
PRE SS</w>
shoul der.</w>
infra structure</w>
good ness</w>
ar ra
m amm
ed !"</w>
ic ks</w>
fin ance</w>
expla ining</w>
he m</w>
I de
ta ke
sol ve</w>
comp ressed,</w>
s way</w>
Champion ship,</w>
Lar ge</w>
remember ,</w>
drug s</w>
itz ,</w>
H ass
Port sm
pap ers,</w>
less ness</w>
B ath
tra vers
f aded</w>
Or land
simplic ity</w>
[...]
